▁d 1
es 1
▁l 1
en 1
on 1
▁p 1
▁de 1
▁s 1
▁c 1
an 1
ou 1
re 1
▁a 1
er 1
ti 1
qu 1
is 1
ent 1
in 1
et 1
it 1
▁m 1
ar 1
le 1
▁la 1
ur 1
un 1
▁t 1
▁qu 1
▁et 1
tion 1
or 1
▁le 1
▁f 1
il 1
te 1
▁n 1
▁à 1
ra 1
our 1
▁v 1
om 1
▁en 1
▁un 1
▁les 1
▁des 1
ré 1
ment 1
el 1
us 1
al 1
ro 1
ant 1
▁L 1
est 1
ri 1
as 1
ont 1
ce 1
▁au 1
ans 1
▁C 1
▁b 1
au 1
ation 1
▁é 1
ch 1
▁par 1
▁du 1
ai 1
me 1
si 1
res 1
ve 1
▁pour 1
▁dé 1
eu 1
li 1
▁j 1
ci 1
que 1
ous 1
▁g 1
se 1
té 1
oi 1
ais 1
ag 1
▁re 1
ne 1
at 1
▁P 1
▁con 1
▁que 1
▁com 1
ait 1
▁pl 1
▁dans 1
▁S 1
▁M 1
tre 1
▁une 1
de 1
▁pro 1
di 1
▁est 1
▁in 1
▁ré 1
▁sur 1
▁qui 1
▁1 1
▁A 1
▁ch 1
mp 1
ol 1
▁D 1
os 1
ité 1
▁pas 1
ée 1
▁se 1
▁e 1
▁( 1
▁E 1
pp 1
ab 1
les 1
ie 1
ff 1
▁2 1
ain 1
ers 1
ac 1
▁h 1
▁r 1
ouv 1
elle 1
urs 1
ons 1
▁plus 1
▁I 1
end 1
am 1
aire 1
▁B 1
ran 1
▁o 1
ter 1
tu 1
ès 1
és 1
ère 1
vec 1
ale 1
▁ce 1
ir 1
onn 1
ul 1
▁il 1
ui 1
tes 1
▁R 1
▁T 1
▁avec 1
▁di 1
▁pré 1
▁F 1
▁tou 1
▁ne 1
▁J 1
ces 1
▁ou 1
ques 1
▁av 1
▁tr 1
▁Le 1
ig 1
age 1
ort 1
ois 1
▁N 1
▁" 1
pr 1
ue 1
ge 1
ite 1
▁: 1
▁ex 1
ette 1
▁su 1
ées 1
ien 1
▁sont 1
ction 1
pe 1
ot 1
▁pr 1
oin 1
▁son 1
oir 1
ille 1
une 1
mb 1
ier 1
che 1
ic 1
▁20 1
▁G 1
pé 1
ati 1
▁Il 1
and 1
▁ra 1
▁La 1
▁aux 1
▁V 1
ux 1
▁sa 1
aux 1
▁i 1
▁peu 1
ique 1
mes 1
▁vous 1
▁tra 1
vi 1
▁an 1
▁ac 1
oc 1
du 1
entre 1
▁je 1
én 1
ance 1
▁ser 1
ations 1
ad 1
▁Les 1
ure 1
▁mais 1
ill 1
eux 1
uis 1
ence 1
st 1
▁ét 1
ist 1
orm 1
ise 1
ion 1
▁comp 1
ens 1
▁li 1
ut 1
og 1
▁parti 1
▁cont 1
▁si 1
ine 1
ours 1
ants 1
ors 1
▁comm 1
▁ont 1
av 1
être 1
▁U 1
▁été 1
ét 1
otre 1
ap 1
▁O 1
able 1
▁fait 1
▁cette 1
ert 1
.. 1
▁3 1
ay 1
um 1
▁« 1
▁nous 1
lé 1
oy 1
aut 1
ub 1
teur 1
▁te 1
▁per 1
▁app 1
▁so 1
ard 1
▁po 1
▁En 1
sent 1
ême 1
▁al 1
ord 1
ér 1
▁H 1
éri 1
ond 1
aires 1
sion 1
tions 1
▁ses 1
ments 1
▁! 1
▁mar 1
▁comme 1
▁dis 1
ace 1
éc 1
▁déc 1
▁me 1
ten 1
▁19 1
éra 1
▁tout 1
▁ar 1
mi 1
ct 1
ussi 1
... 1
▁bien 1
ser 1
bre 1
▁» 1
tif 1
eur 1
ni 1
▁deux 1
▁entre 1
elles 1
▁mon 1
ouve 1
▁leur 1
▁aut 1
▁y 1
00 1
ore 1
▁- 1
▁fin 1
onne 1
lis 1
tique 1
ex 1
▁? 1
ven 1
alis 1
ru 1
oup 1
▁pers 1
im 1
ss 1
ph 1
tin 1
▁pre 1
▁vi 1
par 1
ème 1
▁on 1
près 1
omm 1
▁ces 1
ouver 1
▁même 1
▁st 1
▁trav 1
▁res 1
▁mo 1
▁faire 1
aient 1
▁aussi 1
▁être 1
ts 1
▁Ch 1
min 1
▁Je 1
▁très 1
ble 1
ec 1
onc 1
lic 1
▁prop 1
▁cons 1
▁car 1
aine 1
▁pe 1
endre 1
▁ma 1
ités 1
its 1
ég 1
▁ter 1
dé 1
oire 1
▁gran 1
teurs 1
▁4 1
alement 1
ang 1
▁inter 1
jet 1
▁201 1
▁sou 1
▁éc 1
ves 1
▁co 1
ture 1
▁imp 1
▁peut 1
ail 1
ats 1
). 1
▁nom 1
lement 1
▁at 1
▁200 1
▁es 1
▁ann 1
), 1
des 1
▁rec 1
ents 1
▁Par 1
▁for 1
oit 1
ici 1
uti 1
ob 1
▁5 1
mps 1
▁pos 1
▁cl 1
rois 1
oins 1
▁conc 1
▁Q 1
cher 1
▁lui 1
▁votre 1
vre 1
use 1
ante 1
cu 1
out 1
▁perm 1
ales 1
▁ad 1
▁elle 1
ères 1
form 1
enti 1
▁rég 1
app 1
▁eff 1
▁Fran 1
▁min 1
all 1
vent 1
ourn 1
eau 1
▁der 1
▁dev 1
▁acc 1
▁ren 1
▁ti 1
fin 1
▁diff 1
ver 1
▁pri 1
lle 1
▁sans 1
▁ans 1
ass 1
▁mil 1
▁ca 1
qui 1
▁tous 1
ing 1
▁che 1
▁personn 1
▁ob 1
▁pay 1
rai 1
▁jus 1
▁gr 1
▁quel 1
▁mé 1
▁enc 1
▁pub 1
sid 1
▁col 1
▁K 1
▁dire 1
▁am 1
▁conf 1
rer 1
▁Et 1
ong 1
man 1
▁or 1
cip 1
▁man 1
▁ég 1
ils 1
po 1
insi 1
▁soci 1
▁cel 1
nement 1
▁produ 1
ages 1
▁W 1
id 1
tra 1
▁Pour 1
▁dép 1
▁Ce 1
éd 1
ures 1
tement 1
▁mes 1
puis 1
nes 1
▁gén 1
lè 1
▁sy 1
ins 1
▁peti 1
alité 1
ari 1
vers 1
titu 1
▁prof 1
▁cha 1
anc 1
▁où 1
rit 1
▁poli 1
ES 1
▁rep 1
▁présent 1
▁Mais 1
▁puis 1
lus 1
▁exp 1
ains 1
tis 1
tiv 1
▁ph 1
els 1
▁donn 1
▁pays 1
gan 1
ense 1
itu 1
enne 1
emp 1
▁sec 1
uro 1
▁ass 1
ente 1
▁De 1
utilis 1
▁rapp 1
▁vis 1
iste 1
ler 1
▁dont 1
▁encore 1
op 1
▁cré 1
▁6 1
▁th 1
▁ri 1
iques 1
▁était 1
ON 1
mbre 1
▁temps 1
opp 1
▁trans 1
▁dro 1
▁permet 1
▁ainsi 1
▁seu 1
▁commun 1
olog 1
", 1
▁avait 1
▁leurs 1
▁contre 1
endant 1
▁sous 1
▁Qu 1
olu 1
▁après 1
▁nombre 1
omme 1
iss 1
gra 1
tiques 1
▁Un 1
tr 1
▁lors 1
▁également 1
ign 1
▁ni 1
▁premi 1
oul 1
▁avant 1
▁fa 1
orte 1
tés 1
▁cas 1
rait 1
▁part 1
▁ju 1
vel 1
ose 1
em 1
lique 1
▁fran 1
ches 1
▁donc 1
tic 1
▁cert 1
▁généra 1
▁fois 1
▁servi 1
téri 1
▁sé 1
▁déb 1
▁; 1
ues 1
onom 1
oupe 1
▁depuis 1
▁rés 1
▁On 1
ém 1
▁moins 1
▁vie 1
▁Mar 1
vis 1
▁mal 1
ib 1
ête 1
cep 1
aines 1
▁nouv 1
gn 1
▁non 1
oci 1
▁rép 1
oute 1
uer 1
▁poin 1
ganis 1
▁sal 1
▁notre 1
▁off 1
pi 1
ises 1
ement 1
ole 1
▁trois 1
▁Au 1
agn 1
▁Elle 1
▁7 1
ate 1
▁France 1
▁sera 1
▁form 1
▁In 1
▁mont 1
▁Une 1
tionn 1
▁jou 1
▁8 1
ern 1
▁grand 1
▁conn 1
▁alors 1
ché 1
▁év 1
ric 1
çais 1
acc 1
ta 1
velopp 1
rib 1
rop 1
ça 1
omp 1
ann 1
▁nouve 1
▁ent 1
▁Nous 1
év 1
cess 1
▁cor 1
▁fon 1
ilité 1
▁fil 1
jours 1
▁bas 1
rée 1
▁monde 1
elon 1
ies 1
▁ag 1
ables 1
▁ab 1
▁toute 1
mier 1
ission 1
ances 1
▁sc 1
▁Dans 1
▁beau 1
▁enf 1
▁déf 1
▁autres 1
mble 1
▁sui 1
▁É 1
▁aff 1
▁avoir 1
sse 1
if 1
▁milli 1
tive 1
▁met 1
iter 1
estion 1
▁pouv 1
▁soit 1
aille 1
été 1
▁né 1
▁prin 1
vir 1
ult 1
tég 1
ions 1
▁cour 1
jour 1
▁préc 1
dic 1
▁10 1
▁place 1
▁ils 1
▁cap 1
▁ins 1
▁projet 1
▁gra 1
eure 1
▁Con 1
ctions 1
▁développ 1
▁long 1
sement 1
▁ça 1
▁toujours 1
la 1
sition 1
▁utilis 1
ron 1
▁9 1
▁pass 1
igne 1
▁quelques 1
erci 1
TI 1
▁no 1
ites 1
ange 1
voir 1
imp 1
ieurs 1
▁travail 1
agne 1
▁rel 1
▁différ 1
era 1
▁18 1
▁const 1
▁déj 1
lar 1
ences 1
qué 1
ateur 1
▁éle 1
▁Al 1
antes 1
▁dém 1
▁inc 1
ration 1
▁situ 1
▁public 1
mé 1
▁premier 1
▁aur 1
tres 1
▁Cette 1
gram 1
▁im 1
▁nation 1
▁main 1
▁mi 1
▁rest 1
amment 1
▁jour 1
▁ver 1
▁toutes 1
ER 1
▁nos 1
▁Si 1
000 1
are 1
oule 1
▁va 1
aî 1
lu 1
▁fem 1
▁partie 1
▁An 1
rê 1
ez 1
mand 1
▁personnes 1
péci 1
▁fond 1
▁derni 1
▁vers 1
▁char 1
ôt 1
▁faut 1
▁français 1
ière 1
omb 1
▁suis 1
ateurs 1
per 1
▁fam 1
▁cours 1
ellement 1
▁compr 1
▁can 1
▁0 1
quer 1
▁coup 1
autres 1
▁réf 1
élé 1
▁première 1
▁cela 1
coup 1
ature 1
résent 1
▁emp 1
rez 1
▁15 1
▁199 1
▁rem 1
lig 1
ommes 1
▁mois 1
hui 1
▁bl 1
▁jusqu 1
ges 1
EN 1
▁indi 1
▁bon 1
sionn 1
ris 1
▁spéci 1
▁déjà 1
ets 1
▁présid 1
▁vos 1
▁not 1
rés 1
▁intern 1
▁prob 1
▁mus 1
▁possi 1
▁rapport 1
▁doit 1
▁euro 1
▁autre 1
ande 1
▁fonction 1
▁plusieurs 1
▁dét 1
▁gouver 1
▁Vous 1
th 1
aiss 1
entes 1
▁loc 1
cc 1
ication 1
erg 1
▁pi 1
seil 1
ili 1
▁tech 1
▁dit 1
vé 1
▁réalis 1
▁pres 1
▁Comm 1
cont 1
dre 1
▁mati 1
▁recher 1
▁gar 1
ud 1
▁dom 1
▁dur 1
▁sais 1
ich 1
péri 1
▁w 1
uses 1
AN 1
▁30 1
▁lég 1
▁particu 1
tant 1
ode 1
▁program 1
vez 1
adi 1
▁men 1
asse 1
▁beaucoup 1
▁années 1
▁k 1
▁import 1
ôle 1
▁Di 1
▁cet 1
quipe 1
anci 1
lo 1
▁compte 1
▁profes 1
ième 1
jourd 1
▁cli 1
▁nive 1
▁nouveau 1
rent 1
▁ci 1
illes 1
▁particuli 1
▁moy 1
▁dou 1
▁jeu 1
nier 1
rie 1
▁europé 1
unes 1
▁quand 1
▁propos 1
pect 1
orti 1
▁représent 1
▁Can 1
▁ten 1
▁chez 1
ines 1
▁chaque 1
▁enfants 1
▁tu 1
éb 1
anti 1
". 1
one 1
mande 1
▁, 1
▁disp 1
▁organis 1
▁groupe 1
▁souv 1
▁mod 1
fi 1
▁fer 1
▁soi 1
istre 1
mer 1
ath 1
▁Des 1
▁vol 1
az 1
su 1
ène 1
oris 1
Un 1
raph 1
▁grande 1
▁att 1
▁simp 1
▁dernier 1
▁région 1
▁fra 1
ép 1
▁lieu 1
▁ro 1
▁mom 1
aur 1
▁vrai 1
ront 1
▁politique 1
fs 1
▁notamment 1
tifs 1
▁reg 1
▁princip 1
UR 1
▁parf 1
▁prix 1
▁jours 1
▁12 1
ress 1
▁étu 1
▁selon 1
pul 1
ison 1
▁syst 1
ative 1
▁journ 1
▁sem 1
▁moi 1
iti 1
▁DE 1
▁supp 1
▁dés 1
▁plan 1
ade 1
aint 1
▁afin 1
cé 1
▁cin 1
▁Th 1
port 1
▁économ 1
▁inst 1
vant 1
▁site 1
▁cul 1
▁Plus 1
▁Pro 1
tat 1
jou 1
èrement 1
sions 1
▁cô 1
▁lib 1
cri 1
ger 1
▁ven 1
oix 1
nent 1
prise 1
▁Re 1
èg 1
od 1
▁Y 1
écur 1
éli 1
▁nécess 1
▁sep 1
▁jam 1
▁ai 1
▁por 1
▁Ils 1
▁(1 1
oli 1
éric 1
▁peuvent 1
▁cad 1
▁voir 1
▁là 1
▁fi 1
▁», 1
était 1
▁eu 1
ell 1
uire 1
rir 1
▁bes 1
ori 1
▁nouvelle 1
tien 1
▁arri 1
▁pra 1
▁point 1
eurs 1
atri 1
▁trop 1
▁meille 1
ada 1
olution 1
▁effet 1
▁inform 1
▁internation 1
▁ville 1
ach 1
istoire 1
▁direc 1
▁contin 1
▁fut 1
bles 1
ticle 1
▁droit 1
▁celui 1
▁ret 1
▁ceux 1
▁pouvoir 1
▁mis 1
art 1
▁14 1
atique 1
anté 1
int 1
tée 1
▁petit 1
aill 1
▁dispo 1
▁tour 1
▁cent 1
▁inf 1
▁pendant 1
iens 1
▁niveau 1
▁gouvernement 1
▁exemp 1
çon 1
aff 1
pl 1
ros 1
▁développement 1
cul 1
▁moment 1
pons 1
▁Paris 1
▁demand 1
▁17 1
▁hab 1
RE 1
mbl 1
▁réc 1
▁Jean 1
IS 1
▁À 1
▁sub 1
▁% 1
▁services 1
mbres 1
jec 1
▁demande 1
▁mise 1
ov 1
▁avons 1
▁ouv 1
▁Com 1
aud 1
▁sol 1
▁rien 1
▁nature 1
rage 1
eures 1
▁z 1
▁rencont 1
ribu 1
▁sécur 1
▁colle 1
▁prom 1
ust 1
isme 1
amb 1
▁bou 1
▁jamais 1
▁cher 1
▁remp 1
▁produits 1
▁ess 1
▁ép 1
▁popul 1
▁inté 1
erc 1
▁fais 1
▁particip 1
▁activ 1
ret 1
▁auc 1
uit 1
▁prendre 1
▁Ar 1
▁jeunes 1
gé 1
ût 1
vient 1
▁reste 1
▁retr 1
inter 1
▁contra 1
part 1
▁phot 1
ok 1
▁début 1
serv 1
▁péri 1
▁bi 1
▁mét 1
tout 1
▁X 1
ak 1
▁cal 1
▁16 1
-1 1
él 1
▁résult 1
▁esp 1
▁président 1
▁11 1
▁. 1
▁trouve 1
▁mettre 1
yp 1
▁comment 1
xe 1
▁membres 1
vous 1
0, 1
prises 1
▁question 1
▁recherche 1
▁mat 1
cien 1
▁techn 1
▁suite 1
AR 1
cid 1
▁prév 1
onde 1
▁Ces 1
▁Saint 1
istes 1
isse 1
▁respons 1
▁celle 1
gl 1
▁ple 1
▁partir 1
gement 1
tent 1
atre 1
▁millions 1
▁savoir 1
▁doc 1
▁fac 1
▁détail 1
▁certains 1
▁sorti 1
▁ref 1
▁comb 1
onnement 1
▁condi 1
atis 1
▁système 1
tier 1
▁hum 1
▁ris 1
▁appar 1
ettes 1
▁souvent 1
uss 1
▁professionn 1
érie 1
ah 1
▁maison 1
ograph 1
▁Car 1
autre 1
▁film 1
▁aujourd 1
IN 1
oles 1
▁général 1
pec 1
▁seul 1
▁13 1
▁id 1
▁tot 1
▁cadre 1
ire 1
uc 1
▁Z 1
âce 1
20 1
▁cou 1
éné 1
▁sau 1
èle 1
TION 1
loi 1
▁as 1
venir 1
▁rou 1
▁service 1
▁voy 1
▁envir 1
minist 1
▁famille 1
ager 1
▁concern 1
▁année 1
anger 1
▁mieux 1
tenir 1
▁mag 1
▁actu 1
suite 1
tern 1
▁crois 1
oires 1
▁Conseil 1
▁trouv 1
▁voit 1
▁sécurité 1
▁– 1
▁veu 1
for 1
▁port 1
air 1
▁tant 1
rier 1
tembre 1
▁seront 1
▁mort 1
▁Canada 1
▁cro 1
▁constitu 1
▁vue 1
▁ense 1
▁bonne 1
▁santé 1
be 1
▁règ 1
▁décis 1
érence 1
▁étaient 1
ps 1
endu 1
ueil 1
▁devant 1
œu 1
aly 1
▁pris 1
mis 1
▁face 1
▁sens 1
rière 1
▁cr 1
▁femmes 1
ible 1
▁qualité 1
vention 1
▁découv 1
action 1
▁vic 1
tats 1
hait 1
▁société 1
▁exemple 1
▁ress 1
ow 1
▁personne 1
▁surtout 1
▁septembre 1
rain 1
itaire 1
ression 1
▁souhait 1
▁fl 1
▁proch 1
CE 1
LE 1
duc 1
▁Après 1
▁publi 1
▁possible 1
▁sour 1
▁siè 1
▁ligne 1
co 1
dement 1
tenant 1
▁lim 1
lément 1
▁rapi 1
ailleurs 1
▁exc 1
▁». 1
cture 1
xte 1
rique 1
ital 1
val 1
cle 1
▁effec 1
▁titre 1
TE 1
▁all 1
▁contr 1
êtes 1
vée 1
▁pu 1
2. 1
▁quatre 1
▁mot 1
ologie 1
att 1
▁doi 1
▁seulement 1
urope 1
ug 1
térieur 1
▁cri 1
▁éch 1
2, 1
▁proc 1
▁près 1
3. 1
▁programme 1
▁constru 1
▁serait 1
eff 1
▁marché 1
▁trouver 1
▁000 1
▁the 1
▁déclar 1
▁vo 1
vie 1
▁côté 1
▁eux 1
▁droits 1
▁façon 1
til 1
oration 1
▁États 1
éré 1
eb 1
▁198 1
1. 1
0. 1
ess 1
▁sp 1
▁25 1
ds 1
▁ministre 1
abilité 1
vier 1
vres 1
ossi 1
▁mai 1
▁vale 1
▁porte 1
▁formation 1
▁camp 1
gment 1
▁compé 1
tention 1
▁données 1
ouvez 1
▁télé 1
▁asse 1
act 1
▁sign 1
▁heures 1
yant 1
▁améric 1
inform 1
▁reconn 1
pendant 1
▁vraiment 1
année 1
dust 1
ition 1
▁pens 1
avant 1
▁loi 1
OM 1
iles 1
aise 1
ivers 1
▁base 1
arm 1
▁St 1
▁défin 1
▁cir 1
▁étab 1
▁br 1
lex 1
gré 1
▁ici 1
▁minu 1
▁centre 1
▁docu 1
▁lar 1
▁maj 1
ément 1
▁élect 1
uel 1
▁Ne 1
▁nombreux 1
opé 1
▁financi 1
équ 1
▁culture 1
▁but 1
▁parce 1
ton 1
lication 1
▁Cel 1
illet 1
▁mesure 1
▁situation 1
agit 1
▁Mont 1
▁appel 1
resse 1
▁Mon 1
orité 1
inst 1
inté 1
▁sujet 1
▁elles 1
▁forme 1
ards 1
esp 1
▁produit 1
5, 1
▁manière 1
▁font 1
▁dess 1
▁chois 1
assi 1
▁op 1
▁pourrait 1
▁mondi 1
mment 1
▁voi 1
▁dispon 1
▁conse 1
In 1
▁dès 1
▁grâce 1
uli 1
rêt 1
▁Gr 1
UE 1
▁nouvelles 1
▁réun 1
cer 1
▁parc 1
vo 1
alités 1
▁béné 1
▁rése 1
quoi 1
▁dist 1
▁Commission 1
▁raison 1
▁bar 1
ération 1
lection 1
exp 1
▁besoin 1
isc 1
▁opé 1
▁eng 1
▁chose 1
duction 1
▁associ 1
raient 1
▁voul 1
aute 1
uerre 1
1, 1
▁disc 1
▁salle 1
lin 1
▁modi 1
orer 1
4, 1
Le 1
ienne 1
▁jeune 1
atives 1
loy 1
▁petite 1
ane 1
aisse 1
quel 1
avoir 1
▁change 1
▁champ 1
bilité 1
▁viol 1
amp 1
▁Sur 1
asion 1
ierre 1
iller 1
yn 1
▁travaill 1
▁équi 1
erre 1
aître 1
lles 1
atif 1
▁gl 1
▁dernière 1
▁activités 1
▁passe 1
ennes 1
▁préf 1
▁avez 1
fois 1
3, 1
ettre 1
▁passer 1
ras 1
ilis 1
sence 1
▁choix 1
ock 1
sance 1
▁ques 1
ule 1
▁donner 1
aissance 1
itement 1
▁lit 1
sitions 1
▁mul 1
▁sommes 1
vid 1
▁points 1
▁num 1
join 1
gu 1
▁fourn 1
urer 1
▁matière 1
▁travers 1
▁semaine 1
venu 1
Unis 1
▁collec 1
nif 1
ner 1
▁/ 1
crip 1
▁répond 1
▁sus 1
▁entreprises 1
▁gé 1
did 1
erts 1
▁bat 1
off 1
▁tête 1
▁précis 1
lab 1
▁période 1
inc 1
duire 1
ry 1
▁suff 1
illage 1
▁gens 1
▁femme 1
▁doivent 1
xim 1
oût 1
lam 1
▁série 1
utôt 1
▁conditions 1
▁économique 1
▁", 1
▁gestion 1
dition 1
AL 1
▁Son 1
▁assez 1
▁saison 1
temps 1
auté 1
▁rev 1
▁haut 1
▁territ 1
▁pouvez 1
dit 1
icile 1
orter 1
▁hommes 1
▁rue 1
▁plu 1
lir 1
▁Avec 1
▁piè 1
ype 1
article 1
équipe 1
rét 1
▁tourn 1
gent 1
6, 1
▁én 1
oph 1
oth 1
▁reç 1
▁étudi 1
uri 1
▁lang 1
▁esti 1
erne 1
aît 1
▁Sa 1
éro 1
▁prog 1
▁nég 1
écu 1
éch 1
▁minutes 1
▁log 1
▁livre 1
ensi 1
vision 1
ze 1
▁lo 1
▁1. 1
▁quelque 1
enir 1
ile 1
▁juste 1
▁deuxième 1
▁vu 1
▁fr 1
aul 1
ox 1
usement 1
▁feu 1
ieu 1
7, 1
orme 1
5. 1
obre 1
oser 1
▁ensuite 1
▁match 1
▁inv 1
▁plutôt 1
▁aurait 1
▁accord 1
▁atte 1
▁chi 1
▁destin 1
▁donne 1
osition 1
der 1
chet 1
oh 1
▁candid 1
rès 1
4. 1
ensemble 1
9, 1
fici 1
raî 1
▁prend 1
▁second 1
ètres 1
▁devrait 1
▁sû 1
▁super 1
homme 1
osé 1
histoire 1
▁commen 1
▁coule 1
▁succ 1
▁oct 1
▁... 1
lier 1
acité 1
▁dési 1
aces 1
▁déci 1
▁Ph 1
▁rôle 1
▁politiques 1
▁stra 1
OR 1
▁syn 1
▁équipe 1
▁résultats 1
duit 1
▁Se 1
tivité 1
▁questions 1
▁objec 1
tection 1
▁etc 1
▁avaient 1
▁ord 1
ète 1
ali 1
▁ayant 1
▁pie 1
▁déce 1
▁offici 1
ril 1
▁anim 1
je 1
âte 1
▁soir 1
▁faci 1
rant 1
▁travaux 1
▁passé 1
lac 1
IT 1
▁propre 1
▁thé 1
vin 1
ENT 1
▁européenne 1
oupes 1
▁loin 1
▁of 1
enf 1
▁fort 1
même 1
▁secteur 1
▁cinq 1
men 1
▁nouveaux 1
▁Cl 1
▁vendre 1
quelle 1
lème 1
▁divers 1
8, 1
▁consomm 1
▁tard 1
lace 1
urent 1
anvier 1
▁quoi 1
OU 1
oses 1
▁gen 1
lie 1
▁retour 1
▁mesures 1
▁pai 1
chi 1
An 1
ses 1
▁juin 1
▁vér 1
voy 1
▁différents 1
▁recomm 1
tient 1
▁suiv 1
▁médi 1
▁mari 1
heure 1
▁Pré 1
▁laquelle 1
▁commune 1
chés 1
aliste 1
hi 1
rig 1
▁parfait 1
Al 1
▁corps 1
▁problème 1
▁rend 1
▁pan 1
ice 1
▁cause 1
reg 1
▁pol 1
▁cuis 1
▁ta 1
orig 1
tives 1
▁veut 1
ception 1
▁unique 1
▁quar 1
organis 1
▁21 1
▁homme 1
alisation 1
▁â 1
▁accomp 1
▁chac 1
œuvre 1
▁semble 1
▁ban 1
anche 1
ke 1
tées 1
▁club 1
▁Comme 1
▁production 1
▁petits 1
▁Gran 1
▁nationale 1
▁chef 1
▁propri 1
aï 1
▁terme 1
AS 1
èmes 1
▁is 1
▁décembre 1
▁étant 1
étu 1
▁informations 1
▁100 1
ablement 1
▁table 1
▁parten 1
▁simple 1
▁tent 1
aide 1
▁vé 1
▁Tout 1
rées 1
▁guerre 1
▁Ex 1
lise 1
▁(2 1
▁cit 1
▁lanc 1
▁Dé 1
▁pense 1
▁mars 1
▁gratu 1
▁197 1
▁taux 1
raire 1
▁date 1
▁décision 1
▁aura 1
aci 1
▁janvier 1
rec 1
▁matin 1
▁grands 1
▁stratég 1
▁LA 1
▁avis 1
quent 1
yc 1
rim 1
urg 1
he 1
▁sein 1
▁maintenant 1
né 1
▁octobre 1
▁Cela 1
ourg 1
▁effectu 1
usse 1
oud 1
▁commerci 1
médi 1
vement 1
auche 1
▁Me 1
▁mer 1
tro 1
once 1
vestis 1
jouter 1
ime 1
uros 1
▁fav 1
▁lun 1
▁vidé 1
▁orig 1
▁oc 1
▁Pas 1
agement 1
son 1
▁concernant 1
La 1
▁visite 1
▁habit 1
çois 1
▁temp 1
▁seule 1
▁bois 1
▁mor 1
▁présente 1
illeurs 1
▁diman 1
itaires 1
▁plais 1
alu 1
auteur 1
occ 1
-2 1
▁population 1
ociation 1
▁cer 1
6. 1
▁journée 1
quant 1
▁conte 1
▁aucun 1
érique 1
▁autour 1
aque 1
▁24 1
▁type 1
▁Char 1
▁to 1
▁50 1
gne 1
▁important 1
▁augment 1
quête 1
▁stru 1
▁Bar 1
▁nécessaire 1
▁propose 1
ionn 1
dro 1
▁artis 1
périence 1
medi 1
▁mun 1
dez 1
termin 1
▁Col 1
▁ali 1
7. 1
▁appr 1
▁fig 1
▁retra 1
▁contrôle 1
▁prê 1
9. 1
ébec 1
tice 1
vembre 1
▁projets 1
▁€ 1
▁parfois 1
èrent 1
▁pratique 1
ocra 1
▁donné 1
▁certaines 1
▁Su 1
information 1
▁rév 1
cup 1
IC 1
▁étran 1
▁multi 1
▁conten 1
dis 1
ources 1
oign 1
▁Rép 1
▁domaine 1
▁particulier 1
ki 1
▁fai 1
▁atta 1
▁lorsque 1
con 1
ède 1
▁regard 1
▁hist 1
ote 1
onomie 1
ATION 1
oncé 1
udg 1
▁risque 1
▁choses 1
uve 1
▁vari 1
ly 1
▁repr 1
erce 1
ones 1
AC 1
▁manif 1
▁2. 1
▁dimanche 1
▁mouve 1
▁ém 1
après 1
atiques 1
▁création 1
▁conseil 1
ome 1
iance 1
▁française 1
▁protection 1
▁nombreuses 1
iner 1
▁Mal 1
▁juillet 1
▁médic 1
▁oblig 1
▁matéri 1
▁dol 1
▁voyage 1
Ar 1
▁modif 1
œur 1
▁administ 1
▁Selon 1
▁national 1
▁musique 1
ambre 1
▁tomb 1
▁22 1
▁aid 1
▁gagn 1
▁valeur 1
▁sig 1
êmes 1
envir 1
▁élé 1
alif 1
hab 1
urb 1
▁autant 1
mar 1
ting 1
▁belle 1
▁Alors 1
▁Ser 1
▁vient 1
▁minist 1
abord 1
▁bénéfici 1
poque 1
nies 1
▁ailleurs 1
ologique 1
▁réser 1
ack 1
▁rendre 1
▁Or 1
dec 1
▁lut 1
▁val 1
▁mob 1
▁auprès 1
tivement 1
uy 1
ibles 1
▁Mich 1
▁opéra 1
tie 1
▁Lors 1
▁novembre 1
▁initi 1
niques 1
▁Ré 1
rou 1
▁bal 1
cessus 1
▁générale 1
▁rencontre 1
ormais 1
▁Du 1
▁respec 1
oti 1
inf 1
▁dollar 1
▁compris 1
entiel 1
pond 1
▁publique 1
IL 1
▁bâ 1
▁consid 1
iers 1
▁anti 1
▁diri 1
▁prise 1
▁moyen 1
cident 1
État 1
▁doute 1
▁heure 1
▁imm 1
▁supéri 1
▁différentes 1
▁dépar 1
▁aucune 1
orités 1
dess 1
onnes 1
die 1
orts 1
▁spect 1
▁six 1
▁Québec 1
▁alle 1
Les 1
50 1
▁liste 1
▁longue 1
▁rom 1
▁vont 1
▁transport 1
▁senti 1
▁processus 1
▁Pl 1
▁capit 1
8. 1
▁méth 1
eng 1
ouverte 1
▁budg 1
▁1, 1
▁merc 1
ouverture 1
iné 1
▁autom 1
▁tend 1
▁Cor 1
ient 1
En 1
▁centra 1
quis 1
▁euros 1
ublique 1
▁permis 1
▁pourquoi 1
▁bout 1
lèmes 1
▁diffic 1
▁conséqu 1
▁document 1
sements 1
atoire 1
ia 1
ergie 1
▁terre 1
▁village 1
▁priv 1
roche 1
réci 1
▁durant 1
▁milieu 1
▁effic 1
▁consi 1
tenu 1
▁lum 1
sp 1
land 1
▁accep 1
iennent 1
▁uti 1
NE 1
▁nuit 1
▁Br 1
dien 1
▁charge 1
▁Sh 1
étique 1
alog 1
▁maî 1
cipe 1
ancement 1
▁dég 1
oub 1
▁Am 1
▁aller 1
▁assur 1
▁avril 1
▁and 1
ame 1
dio 1
▁succès 1
▁institu 1
▁réseau 1
DE 1
▁page 1
IE 1
ysi 1
▁Bel 1
▁univers 1
icip 1
▁Depuis 1
▁offre 1
▁départ 1
▁siècle 1
▁problèmes 1
respond 1
let 1
▁équip 1
occasion 1
▁II 1
nivers 1
▁renfor 1
▁23 1
▁celles 1
▁sélection 1
enn 1
ordre 1
▁prépar 1
▁marque 1
▁fab 1
▁chemin 1
sé 1
▁Pr 1
erie 1
▁jouer 1
ende 1
entreprise 1
redi 1
Etat 1
▁volont 1
▁ressources 1
ureau 1
▁vendredi 1
▁plaisir 1
hic 1
▁ET 1
▁us 1
origine 1
utilisation 1
▁grandes 1
▁lais 1
ardin 1
▁détermin 1
évrier 1
▁ton 1
élè 1
▁pat 1
prit 1
ié 1
▁meilleur 1
▁garanti 1
▁reven 1
▁affir 1
▁PR 1
Europe 1
▁intéress 1
▁correspond 1
dustri 1
▁tém 1
onie 1
▁victi 1
sident 1
▁désormais 1
▁rapidement 1
▁sociale 1
▁dossi 1
oine 1
▁environ 1
opération 1
▁Ou 1
▁zone 1
▁groupes 1
itable 1
▁chiff 1
▁Etats 1
▁lundi 1
auv 1
▁répon 1
emploi 1
reux 1
▁personnel 1
▁soient 1
▁gros 1
nements 1
▁père 1
▁samedi 1
▁chacun 1
dam 1
ls 1
US 1
▁Pe 1
▁contribu 1
▁confir 1
tal 1
sy 1
▁municip 1
▁Li 1
▁adop 1
▁canadi 1
istance 1
▁écrit 1
lissement 1
▁complè 1
▁vois 1
▁indé 1
▁direction 1
sui 1
▁chau 1
veur 1
▁Comment 1
▁sûr 1
▁parler 1
▁plein 1
▁découvrir 1
▁parents 1
▁employ 1
▁François 1
▁fé 1
▁pren 1
▁pap 1
AT 1
▁compos 1
▁opp 1
▁dollars 1
▁km 1
▁scène 1
ditionn 1
▁rais 1
entrée 1
▁analy 1
▁relig 1
ase 1
accord 1
issant 1
mblée 1
▁pot 1
▁plupart 1
▁force 1
ouse 1
▁précéd 1
▁ensemble 1
▁sex 1
▁terrain 1
af 1
ck 1
char 1
ination 1
▁Ainsi 1
quée 1
▁présence 1
▁créer 1
igue 1
▁police 1
▁frais 1
OS 1
orie 1
▁route 1
▁origin 1
▁souff 1
rons 1
cteurs 1
ducation 1
▁premiers 1
▁parmi 1
▁dernières 1
▁four 1
▁recommand 1
▁médec 1
30 1
pend 1
alistes 1
ades 1
▁termin 1
▁adap 1
▁Sy 1
▁février 1
▁poursui 1
▁pati 1
▁technique 1
arri 1
rais 1
▁pén 1
▁internationale 1
▁modèle 1
▁gauche 1
▁quoti 1
▁suc 1
▁troisième 1
main 1
▁texte 1
▁dix 1
▁simplement 1
▁jeux 1
ppe 1
Je 1
EC 1
ple 1
AG 1
▁campagne 1
▁améli 1
▁véhic 1
tière 1
▁cherche 1
▁manifest 1
▁histor 1
▁collab 1
▁méc 1
▁derniers 1
rice 1
▁40 1
▁directeur 1
▁photos 1
▁genre 1
▁démar 1
▁fille 1
▁agré 1
▁sac 1
bes 1
▁mode 1
▁moyens 1
▁clients 1
▁rece 1
avait 1
▁Ma 1
▁Man 1
▁fré 1
amen 1
▁difficile 1
▁réguli 1
▁Pre 1
▁dél 1
yth 1
▁mardi 1
▁Cons 1
èse 1
école 1
201 1
▁liber 1
▁DES 1
ications 1
▁Déc 1
▁administra 1
▁+ 1
▁vit 1
▁ha 1
▁fils 1
▁considé 1
avantage 1
▁quit 1
lég 1
▁196 1
▁version 1
euros 1
Union 1
▁install 1
urr 1
▁soutien 1
tiers 1
▁test 1
lent 1
▁Intern 1
sie 1
▁ve 1
▁fix 1
ormes 1
▁exig 1
▁position 1
odes 1
▁sud 1
▁LE 1
dique 1
oun 1
entif 1
cription 1
▁oeu 1
cessi 1
▁devient 1
▁Cour 1
▁défense 1
▁social 1
▁vac 1
▁libre 1
▁Comité 1
titude 1
▁République 1
▁démocra 1
▁Bien 1
▁physi 1
rance 1
▁dispar 1
▁carte 1
▁restaur 1
▁programmes 1
seur 1
oré 1
▁pous 1
AI 1
oie 1
▁semaines 1
▁vite 1
▁besoins 1
▁nord 1
▁milliards 1
tim 1
▁sait 1
rement 1
ek 1
▁lequel 1
position 1
▁mercredi 1
▁neu 1
arer 1
▁élè 1
avi 1
▁jeudi 1
isation 1
▁plac 1
avais 1
bum 1
▁pied 1
liquer 1
aume 1
▁croissance 1
▁laisser 1
ville 1
ape 1
▁voix 1
▁spécif 1
étés 1
▁Tous 1
▁sty 1
▁poss 1
▁déli 1
▁lorsqu 1
▁permettre 1
atisf 1
ME 1
▁Bl 1
▁féd 1
▁blanc 1
▁rense 1
▁qualif 1
gue 1
estre 1
▁industri 1
▁Français 1
▁Dieu 1
▁maladi 1
▁histoire 1
▁construction 1
▁mess 1
▁amb 1
▁dén 1
▁diffus 1
ancer 1
▁voiture 1
▁total 1
atifs 1
▁Ren 1
aison 1
▁vict 1
▁territoire 1
99 1
étaire 1
▁bord 1
▁trouvé 1
ignement 1
▁presse 1
▁large 1
▁déclaré 1
▁manque 1
▁bâti 1
cteur 1
issement 1
▁durée 1
ieux 1
▁Nord 1
AP 1
▁international 1
▁presque 1
tine 1
▁explique 1
MENT 1
▁sortie 1
▁emb 1
▁droite 1
▁éléments 1
endra 1
▁symp 1
up 1
▁œuvre 1
▁vidéo 1
▁décidé 1
▁norm 1
▁joueurs 1
nov 1
matique 1
▁poste 1
▁vivre 1
▁réussi 1
oot 1
arde 1
▁yeux 1
▁parties 1
▁Min 1
Mar 1
éder 1
▁traitement 1
▁fonctionn 1
vidu 1
objet 1
▁scol 1
ani 1
▁bles 1
▁Gu 1
▁rappel 1
▁couv 1
▁Tra 1
uelle 1
ett 1
▁pourtant 1
AU 1
▁chambre 1
oz 1
▁Quand 1
▁mouvement 1
▁Pierre 1
▁européen 1
▁étrang 1
och 1
hum 1
▁état 1
▁supplément 1
▁Tr 1
▁département 1
▁venir 1
▁communauté 1
▁remar 1
▁suivi 1
êche 1
vain 1
▁membre 1
▁No 1
▁coû 1
▁enfin 1
▁arrê 1
▁entraî 1
▁peine 1
éle 1
ament 1
enses 1
▁difficul 1
/1 1
▁Mme 1
▁soli 1
apon 1
▁gro 1
lande 1
ariat 1
▁aj 1
▁Fin 1
▁sort 1
▁procé 1
▁idé 1
▁moyenne 1
▁Europe 1
cientif 1
Or 1
▁compar 1
▁maire 1
ules 1
▁confort 1
▁mauv 1
frique 1
OUR 1
▁catég 1
▁citoy 1
veill 1
▁cœur 1
ide 1
SE 1
▁stat 1
▁article 1
▁gard 1
▁certaine 1
▁28 1
hé 1
▁longtemps 1
▁rê 1
ma 1
▁deme 1
▁signif 1
▁perform 1
▁Ab 1
cience 1
▁satisf 1
▁26 1
▁mère 1
téra 1
olutions 1
OL 1
▁sensi 1
ys 1
orté 1
acté 1
▁vente 1
▁lesqu 1
import 1
qués 1
andis 1
ast 1
ork 1
isl 1
tition 1
▁parle 1
▁noir 1
▁abs 1
▁fle 1
com 1
▁trib 1
▁communi 1
ticles 1
▁aliment 1
▁tri 1
▁comprendre 1
▁27 1
▁gui 1
▁achet 1
▁crise 1
étab 1
ates 1
▁techniques 1
▁Is 1
▁prot 1
▁EN 1
▁classe 1
Ch 1
▁outil 1
▁New 1
accès 1
▁faisant 1
itation 1
▁ajou 1
▁outre 1
oise 1
ciens 1
▁direct 1
▁classi 1
alle 1
▁2, 1
▁appréci 1
▁Commun 1
▁tex 1
▁pleine 1
▁compagn 1
▁directement 1
▁The 1
▁enreg 1
lit 1
▁agric 1
▁intég 1
▁expl 1
▁Notre 1
▁provin 1
éral 1
▁fonds 1
▁scientif 1
▁consac 1
▁amis 1
arité 1
▁concerne 1
ilités 1
▁continu 1
atta 1
▁certain 1
erm 1
lant 1
▁oub 1
inte 1
èce 1
▁3. 1
▁attend 1
bo 1
▁bo 1
dure 1
▁proche 1
▁mondiale 1
▁résid 1
magne 1
▁petites 1
▁dirige 1
chant 1
▁connu 1
▁existe 1
▁Sec 1
este 1
uté 1
▁actuellement 1
▁êtes 1
▁accompagn 1
▁cuisine 1
▁transform 1
▁malgré 1
▁études 1
▁objet 1
▁laisse 1
▁régime 1
▁cam 1
onner 1
▁Sud 1
▁Ad 1
▁répondre 1
▁justice 1
▁contraire 1
▁puisque 1
▁Nic 1
CI 1
ix 1
AM 1
▁cat 1
▁Que 1
▁promo 1
▁poi 1
▁spectac 1
▁août 1
▁Nations 1
▁habitants 1
cl 1
▁31 1
cs 1
▁Rob 1
joint 1
▁retrouver 1
▁Elles 1
environnement 1
▁prochain 1
ènes 1
emb 1
▁refus 1
application 1
▁sociaux 1
▁ancien 1
/2 1
▁communication 1
▁ir 1
pré 1
là 1
▁exist 1
▁responsable 1
ouis 1
▁pratiques 1
▁mission 1
▁protég 1
▁dra 1
ingt 1
▁passage 1
▁vacances 1
▁respect 1
face 1
▁combat 1
rétaire 1
▁salari 1
▁transf 1
▁DU 1
▁pil 1
indre 1
ute 1
▁Toute 1
▁relative 1
llemagne 1
argent 1
ension 1
▁taille 1
ministration 1
▁séjour 1
ulaire 1
▁mél 1
crit 1
▁be 1
▁langue 1
▁consult 1
▁juri 1
SI 1
ith 1
▁pal 1
▁utiliser 1
Il 1
▁jardin 1
quet 1
▁sites 1
▁contrat 1
▁possibilité 1
▁194 1
▁investis 1
urant 1
euse 1
iser 1
activité 1
▁IN 1
ays 1
dire 1
ars 1
▁facile 1
▁cependant 1
ots 1
▁faud 1
tez 1
▁rapide 1
▁maxim 1
ash 1
▁réalité 1
▁App 1
aluation 1
▁solution 1
ève 1
▁command 1
▁gu 1
▁traditionn 1
agé 1
▁fru 1
▁disposition 1
aime 1
▁accès 1
▁réponse 1
▁annoncé 1
état 1
▁sorte 1
▁multip 1
âteau 1
'' 1
èles 1
mée 1
itée 1
ignements 1
dustrie 1
▁autorités 1
▁caracté 1
▁essenti 1
▁glob 1
▁répar 1
ind 1
ume 1
▁0, 1
▁peux 1
▁voie 1
▁blog 1
▁commande 1
▁psy 1
éma 1
▁extra 1
▁lieux 1
▁résultat 1
▁entreprise 1
stitu 1
▁Quel 1
▁Tou 1
▁Roy 1
▁sav 1
▁aider 1
ed 1
liqué 1
TR 1
▁environnement 1
▁mots 1
▁tran 1
▁paix 1
▁suffis 1
▁mém 1
▁dû 1
▁pau 1
▁élèves 1
▁chap 1
▁action 1
▁mécan 1
▁travailler 1
expl 1
▁disponible 1
▁civ 1
ister 1
▁Aut 1
▁majorité 1
organisation 1
▁retrouv 1
cons 1
▁comprend 1
▁lire 1
arch 1
uré 1
appel 1
▁véritable 1
▁Ac 1
ark 1
èque 1
▁sembl 1
▁dossier 1
▁patri 1
▁aim 1
lign 1
▁Cet 1
érif 1
inaire 1
▁pièces 1
▁distribu 1
▁logement 1
▁forte 1
▁devenir 1
ctures 1
▁Cert 1
mat 1
▁liberté 1
aie 1
▁numéro 1
▁toutefois 1
issent 1
lacement 1
▁angl 1
▁forces 1
âtre 1
▁toi 1
▁suivre 1
▁efficace 1
▁législ 1
hô 1
▁typ 1
▁prest 1
▁Ob 1
▁we 1
ulation 1
▁conne 1
▁plate 1
esse 1
▁lutte 1
▁objectifs 1
▁class 1
▁tandis 1
▁hy 1
▁américain 1
▁davantage 1
▁double 1
▁Vi 1
▁montre 1
▁importante 1
ulture 1
., 1
époque 1
▁Enfin 1
pro 1
▁terr 1
ologiques 1
ha 1
▁collè 1
ignes 1
▁nomm 1
▁nav 1
▁structure 1
▁situé 1
énergie 1
▁premières 1
▁Sch 1
▁capacité 1
▁publics 1
▁Comp 1
▁Val 1
▁train 1
ombre 1
▁mètres 1
EL 1
▁montant 1
▁dipl 1
▁professionnels 1
▁indiqué 1
▁demi 1
▁participation 1
▁concurr 1
▁relations 1
▁posi 1
érer 1
ref 1
server 1
ares 1
rimer 1
▁instru 1
sur 1
▁confiance 1
▁reçu 1
▁envoy 1
▁pourra 1
cent 1
alogue 1
âge 1
▁occ 1
ilà 1
▁circul 1
▁prochaine 1
▁minim 1
moins 1
▁Ben 1
mont 1
▁source 1
▁Michel 1
tié 1
IR 1
▁cra 1
▁commerce 1
▁permettant 1
réal 1
▁seconde 1
▁syndic 1
▁référence 1
Am 1
ony 1
orde 1
▁Dis 1
▁actions 1
▁coord 1
▁photo 1
del 1
▁enfant 1
▁fall 1
ario 1
▁débat 1
▁Deux 1
tit 1
▁gam 1
▁accueil 1
▁caract 1
▁règles 1
▁CON 1
▁quartier 1
▁60 1
venue 1
idée 1
▁sim 1
tor 1
exc 1
▁réaliser 1
▁finale 1
▁rester 1
▁meilleure 1
intérieur 1
tir 1
aller 1
▁aide 1
▁ouvert 1
▁For 1
ira 1
aler 1
▁Jac 1
ka 1
▁individu 1
▁garde 1
▁évé 1
▁perman 1
étude 1
▁bureau 1
ôme 1
▁gaz 1
▁carrière 1
▁Ge 1
-0 1
tivités 1
▁liv 1
▁hors 1
▁client 1
▁Jus 1
▁retrouve 1
▁mand 1
▁red 1
▁Cependant 1
▁ministère 1
▁essay 1
▁vais 1
▁mach 1
▁calme 1
▁sport 1
▁Da 1
itant 1
▁commence 1
▁Be 1
▁continue 1
▁mêmes 1
▁Même 1
▁marche 1
oux 1
rist 1
ège 1
▁connaiss 1
▁obtenir 1
▁habitu 1
intérêt 1
▁lois 1
▁couleur 1
▁familles 1
▁changement 1
oss 1
▁demander 1
ographie 1
ama 1
ercice 1
▁rouge 1
tionnel 1
anim 1
▁évo 1
enc 1
▁lien 1
▁famili 1
atrice 1
OP 1
cupé 1
ano 1
association 1
▁rele 1
▁couleurs 1
ana 1
▁29 1
▁finalement 1
▁Joh 1
▁budget 1
demment 1
itre 1
▁Go 1
▁derrière 1
économie 1
▁CH 1
▁principe 1
car 1
▁soulign 1
▁faible 1
▁Peu 1
▁effets 1
▁hier 1
▁condam 1
▁prép 1
▁stock 1
▁style 1
unal 1
▁locaux 1
▁articles 1
▁fisc 1
▁note 1
▁continuer 1
▁enti 1
▁disponibles 1
cis 1
appar 1
▁affaires 1
▁caractéris 1
▁autoris 1
▁Merci 1
univers 1
▁négoci 1
ynam 1
▁sang 1
espace 1
trême 1
▁vingt 1
▁expérience 1
▁utilisé 1
▁fou 1
▁tenu 1
▁COM 1
▁organ 1
ressi 1
▁Internet 1
▁déta 1
▁suivant 1
▁documents 1
anmoins 1
▁victoire 1
administration 1
▁nécessaires 1
▁code 1
▁PS 1
▁Co 1
ainte 1
vés 1
çu 1
▁Grand 1
ssemblée 1
iés 1
▁régions 1
jectif 1
servation 1
▁bel 1
io 1
▁soins 1
▁accue 1
rog 1
▁demandé 1
▁appare 1
▁lab 1
sant 1
▁ami 1
çant 1
gique 1
▁coopération 1
▁relation 1
▁termes 1
▁' 1
▁conform 1
▁réunion 1
▁quotidien 1
agraph 1
▁chans 1
AD 1
▁terra 1
çons 1
▁financement 1
CH 1
▁risques 1
▁lumière 1
met 1
dici 1
▁tal 1
moine 1
▁CE 1
▁Phili 1
duite 1
onné 1
▁dispositions 1
▁int 1
ronique 1
anne 1
▁immédi 1
ina 1
▁ait 1
illon 1
▁propres 1
▁Sal 1
QUE 1
éducation 1
pital 1
▁haute 1
▁Aujourd 1
▁connaître 1
▁fro 1
▁x 1
▁Puis 1
▁At 1
▁participer 1
▁perdu 1
▁permettent 1
▁profiter 1
▁présenter 1
occup 1
ommage 1
▁Centre 1
analy 1
▁porter 1
▁consul 1
▁commission 1
▁endro 1
da 1
/0 1
II 1
▁joue 1
▁économiques 1
ll 1
▁systèmes 1
seurs 1
▁envie 1
▁principal 1
▁faits 1
▁valeurs 1
▁sh 1
▁quant 1
tru 1
▁laiss 1
fe 1
▁court 1
▁défini 1
resser 1
êt 1
▁peuple 1
ambres 1
▁activité 1
▁pièce 1
image 1
▁prévu 1
▁naturel 1
▁règlement 1
ilisation 1
▁établis 1
▁contexte 1
▁écl 1
▁". 1
▁195 1
ètre 1
▁juge 1
▁conseils 1
▁Parti 1
▁marchés 1
▁Président 1
midi 1
ancien 1
▁course 1
▁villes 1
▁Non 1
▁baisse 1
▁équ 1
▁iss 1
▁changer 1
do 1
▁permettra 1
▁nour 1
lan 1
▁concep 1
rat 1
▁san 1
▁chance 1
▁médias 1
AF 1
▁roman 1
appr 1
▁physique 1
▁chauff 1
▁polici 1
améli 1
amour 1
▁bil 1
▁peau 1
imm 1
yon 1
▁Est 1
anges 1
▁consommation 1
▁mas 1
▁Tu 1
▁4. 1
chent 1
▁volonté 1
▁sortir 1
tival 1
ity 1
▁livres 1
airement 1
▁nu 1
», 1
indi 1
ditions 1
otte 1
dessus 1
▁Marie 1
▁vin 1
▁Montréal 1
▁mariage 1
▁500 1
MP 1
▁preuve 1
lications 1
asi 1
▁Chine 1
▁sole 1
▁chale 1
eter 1
uff 1
▁perd 1
roy 1
.- 1
olas 1
▁contrô 1
ball 1
▁paragraph 1
▁connaissance 1
▁exam 1
▁coeur 1
▁kil 1
évolution 1
▁tab 1
olé 1
▁Bon 1
▁dispose 1
gh 1
aliser 1
▁compter 1
▁(3 1
▁facilement 1
tionnelle 1
▁foot 1
▁cop 1
▁joueur 1
▁victimes 1
▁pouvait 1
▁Unies 1
urance 1
▁recherches 1
▁bless 1
ologies 1
▁réseaux 1
▁mic 1
ximité 1
▁fron 1
▁agréable 1
▁responsabilité 1
voi 1
▁oeuvre 1
▁vérif 1
▁album 1
▁compagnie 1
lée 1
▁rendez 1
▁Te 1
▁prim 1
▁oui 1
▁Rés 1
▁logici 1
DI 1
tences 1
▁communes 1
alisé 1
▁peur 1
▁parcours 1
aj 1
▁Ass 1
▁soleil 1
esprit 1
aude 1
▁Ses 1
▁remplac 1
▁pét 1
▁pein 1
▁stratégie 1
▁Pri 1
accueil 1
▁quanti 1
▁appro 1
▁maladie 1
▁magnif 1
▁hausse 1
cal 1
▁prises 1
▁80 1
▁images 1
▁somme 1
pose 1
▁chaî 1
▁Bou 1
▁favoris 1
lusion 1
vité 1
▁Soci 1
ailles 1
▁veux 1
▁joli 1
itez 1
▁procédure 1
▁objectif 1
▁partenaires 1
▁ajouté 1
▁précise 1
oitation 1
▁bons 1
▁Ste 1
ibilité 1
▁proximité 1
▁excell 1
ick 1
oyer 1
▁acteurs 1
▁pourraient 1
ilier 1
▁cu 1
▁Ban 1
ational 1
▁collection 1
▁orient 1
mn 1
▁Lib 1
▁devait 1
▁équipes 1
Assemblée 1
▁militaire 1
uration 1
▁soirée 1
▁communaut 1
ara 1
▁excep 1
▁Sans 1
▁reti 1
▁enseign 1
érant 1
▁Hol 1
tation 1
▁faites 1
▁réduire 1
▁bonnes 1
chement 1
▁calcul 1
▁caractère 1
▁meilleurs 1
▁devraient 1
▁espé 1
▁Parlement 1
ourt 1
▁vites 1
▁psych 1
neur 1
▁mains 1
▁vas 1
.... 1
UN 1
OT 1
▁ble 1
▁sépar 1
▁réalisé 1
▁éviter 1
▁compt 1
illé 1
estival 1
▁anglais 1
On 1
▁zones 1
▁étudiants 1
▁professionnel 1
▁contenu 1
gés 1
▁souhaite 1
▁concours 1
▁) 1
line 1
▁écri 1
▁coût 1
▁35 1
▁représente 1
▁ryth 1
illi 1
▁dimin 1
▁Chris 1
▁Cont 1
oncer 1
alisme 1
▁reb 1
gée 1
▁évent 1
▁3, 1
aissent 1
▁mondial 1
▁favor 1
▁poids 1
ustra 1
▁historique 1
▁fera 1
ocation 1
▁judici 1
▁créé 1
▁lecture 1
▁raisons 1
▁cm 1
asser 1
▁statut 1
▁cab 1
▁web 1
▁séri 1
▁fu 1
iteur 1
industrie 1
▁quelle 1
ventions 1
pren 1
▁week 1
aw 1
▁arrive 1
▁!! 1
▁2014 1
▁2015 1
▁réuss 1
▁professionnelle 1
▁sept 1
▁Conf 1
rêts 1
tte 1
autes 1
ost 1
▁LES 1
ET 1
▁travaille 1
actions 1
▁efforts 1
▁fus 1
▁chambres 1
igh 1
▁march 1
▁sociétés 1
▁cy 1
▁af 1
▁désign 1
▁choc 1
itent 1
▁45 1
▁comité 1
ibli 1
▁Entre 1
▁opérations 1
▁repro 1
▁moitié 1
OC 1
▁vir 1
île 1
▁tari 1
▁Qui 1
10 1
▁Marc 1
▁John 1
onge 1
ropri 1
ini 1
▁Mus 1
eté 1
▁formes 1
▁présenté 1
▁provo 1
▁principaux 1
▁Mi 1
talie 1
▁devenu 1
▁assurer 1
▁dynam 1
▁films 1
forme 1
▁expéri 1
▁lic 1
▁élections 1
quées 1
▁moteur 1
▁Chaque 1
▁symb 1
▁choisir 1
▁candidat 1
▁cru 1
ber 1
▁Paul 1
▁ul 1
hy 1
▁hi 1
uels 1
run 1
▁filles 1
assement 1
▁compétences 1
▁soup 1
esti 1
▁Fl 1
▁spor 1
▁publié 1
▁Mac 1
rite 1
rages 1
...) 1
▁réglement 1
▁gagner 1
▁développer 1
of 1
▁partis 1
▁Beau 1
▁partage 1
onneur 1
armée 1
avenir 1
va 1
▁choisi 1
▁2012 1
affaires 1
▁rasse 1
▁pages 1
▁céré 1
▁Fond 1
▁puissance 1
enfant 1
ciences 1
▁faisait 1
▁rapports 1
▁ment 1
▁somm 1
▁rendu 1
▁personnages 1
▁renseignements 1
▁assure 1
heur 1
ater 1
▁vote 1
▁dépenses 1
enseignement 1
itude 1
▁fonctions 1
▁tient 1
▁tenir 1
▁cinéma 1
▁lour 1
▁penser 1
enci 1
▁retraite 1
▁mér 1
▁partout 1
▁étude 1
rand 1
lois 1
▁fête 1
▁américaine 1
▁sil 1
entielle 1
mm 1
éros 1
▁desc 1
▁témoign 1
▁située 1
▁fonctionnement 1
▁visant 1
▁niveaux 1
▁prol 1
▁mémoire 1
▁uniquement 1
▁justif 1
bert 1
▁adul 1
évaluation 1
▁responsables 1
▁diz 1
▁sources 1
▁Bern 1
▁parfaitement 1
▁Face 1
étais 1
▁renouv 1
▁célè 1
▁faveur 1
▁évid 1
▁Russi 1
▁Aff 1
▁totalement 1
raine 1
▁tâ 1
lié 1
▁Servi 1
▁sin 1
▁2000 1
▁péd 1
▁idée 1
expérience 1
mon 1
▁volu 1
▁urb 1
▁riches 1
▁mauvais 1
▁Gar 1
tienne 1
▁tendance 1
onnée 1
▁illus 1
▁accus 1
▁fabric 1
rich 1
avis 1
▁convain 1
▁organisations 1
▁convi 1
▁réalisation 1
▁proposer 1
▁sug 1
spagne 1
▁condition 1
uclé 1
▁tempéra 1
▁final 1
▁fémin 1
▁facil 1
stru 1
▁message 1
▁pou 1
uler 1
objectif 1
Pour 1
angé 1
▁pression 1
annique 1
▁Seu 1
▁Acc 1
▁matériel 1
▁sent 1
▁solutions 1
▁via 1
▁douce 1
église 1
érences 1
▁candidats 1
▁voire 1
▁puisse 1
▁disposi 1
▁faite 1
▁papier 1
▁pêche 1
adap 1
exist 1
gues 1
▁généralement 1
▁2013 1
bres 1
rection 1
▁pourrez 1
▁discours 1
▁US 1
▁prati 1
▁violence 1
fait 1
▁Ajouter 1
▁patrimoine 1
entité 1
▁constitue 1
▁stu 1
▁largement 1
▁surface 1
ige 1
▁paragraphe 1
▁Louis 1
ritannique 1
niversité 1
▁pron 1
▁circons 1
▁RE 1
▁navig 1
veux 1
diction 1
▁commencé 1
▁ach 1
▁dépend 1
bourg 1
AB 1
rup 1
▁fich 1
▁hom 1
ader 1
▁idées 1
▁Ca 1
40 1
▁démont 1
▁section 1
▁Ni 1
▁music 1
▁allemand 1
ographique 1
▁pois 1
▁Per 1
▁régulièrement 1
▁privé 1
▁Ver 1
▁résolution 1
▁indépend 1
érable 1
▁salon 1
▁Gra 1
▁lancé 1
▁possède 1
▁citoyens 1
▁Nicolas 1
▁prêt 1
▁magas 1
▁bour 1
▁ferme 1
oura 1
mation 1
▁réflex 1
▁couple 1
▁estime 1
▁bras 1
▁banc 1
▁domaines 1
▁2016 1
▁AU 1
▁Groupe 1
étaires 1
▁automatique 1
▁atteint 1
▁lac 1
.1 1
▁enregist 1
ublic 1
▁centrale 1
▁Cré 1
videmment 1
irs 1
comm 1
▁suffit 1
▁lignes 1
▁imag 1
▁application 1
avec 1
▁mandat 1
▁servir 1
▁And 1
▁crit 1
▁championn 1
▁bru 1
▁Votre 1
▁aspect 1
oure 1
▁plans 1
▁Web 1
novation 1
ôm 1
▁diverses 1
RI 1
▁liens 1
▁payer 1
▁souvenir 1
olique 1
▁local 1
▁nouvel 1
▁goût 1
▁statis 1
mine 1
▁fondament 1
▁concert 1
riture 1
▁décisions 1
▁transm 1
chée 1
zz 1
roit 1
▁193 1
▁gamme 1
sieur 1
▁panier 1
▁station 1
▁Russie 1
▁Gen 1
cemment 1
▁sociales 1
▁difficultés 1
ositions 1
delà 1
▁annonce 1
▁ap 1
▁financière 1
▁observ 1
▁identif 1
▁hauteur 1
▁conférence 1
▁mairie 1
▁revanche 1
▁PAR 1
▁moin 1
▁Toutefois 1
▁(19 1
arc 1
we 1
rits 1
anie 1
▁Che 1
▁capitale 1
andes 1
▁écoles 1
▁puisqu 1
▁2008 1
▁vitesse 1
▁envis 1
▁recru 1
▁partager 1
▁emploi 1
lève 1
▁traité 1
autant 1
▁Philippe 1
▁hô 1
▁2017 1
pens 1
hér 1
réh 1
▁proposition 1
▁vend 1
astique 1
oint 1
▁revenu 1
▁Rég 1
ste 1
▁surveill 1
▁repas 1
▁Christ 1
ague 1
▁constr 1
intes 1
▁70 1
unité 1
▁Cap 1
▁Pourquoi 1
Est 1
len 1
▁salariés 1
▁chin 1
▁tiers 1
actu 1
▁internet 1
▁2007 1
ières 1
▁nuclé 1
entraî 1
▁phén 1
▁supérieur 1
▁procéd 1
fort 1
èces 1
▁modèles 1
▁mises 1
▁Certains 1
▁dér 1
▁erre 1
▁catégorie 1
▁énerg 1
sh 1
uisse 1
▁Tur 1
lité 1
térieure 1
▁roi 1
▁rang 1
▁aime 1
by 1
▁pose 1
▁revenir 1
▁dimen 1
▁tôt 1
édi 1
60 1
▁phil 1
atement 1
tig 1
limin 1
▁anciens 1
▁accessi 1
▁arm 1
▁institutions 1
gel 1
assurance 1
rid 1
tiste 1
▁mén 1
▁cath 1
▁titres 1
▁limite 1
▁dessus 1
arrivée 1
▁proches 1
▁revenus 1
▁recours 1
hés 1
enquête 1
▁Champ 1
▁support 1
▁viennent 1
gements 1
▁abord 1
▁courant 1
nous 1
▁2011 1
▁Sp 1
▁Mo 1
▁différence 1
▁durable 1
▁Bra 1
▁morts 1
ouss 1
▁clair 1
▁publiques 1
▁pourront 1
orn 1
▁scén 1
ories 1
▁évolu 1
▁promotion 1
▁entendu 1
▁quasi 1
▁micro 1
ouer 1
▁faute 1
▁réduction 1
▁personnage 1
TS 1
vage 1
▁maîtr 1
▁ital 1
▁viv 1
pon 1
▁chasse 1
iez 1
▁contrib 1
▁Rou 1
iche 1
ourage 1
▁occup 1
▁veulent 1
▁technologie 1
crire 1
▁remb 1
acte 1
▁huit 1
▁Har 1
assin 1
▁textes 1
▁espace 1
▁stade 1
▁perspec 1
▁chercher 1
▁complet 1
analyse 1
old 1
▁utilisateurs 1
▁Dom 1
▁He 1
▁Communauté 1
▁règle 1
▁roy 1
onnées 1
▁do 1
établissement 1
▁tenue 1
ousse 1
▁civi 1
▁tableau 1
▁Nouv 1
▁travailleurs 1
▁types 1
▁bient 1
▁Stra 1
▁York 1
▁Tour 1
IV 1
▁requ 1
▁bran 1
▁figure 1
▁Belgique 1
▁représentants 1
▁élevé 1
▁Pays 1
▁distin 1
▁lettre 1
▁rappelle 1
▁lu 1
importe 1
▁gal 1
▁touche 1
importance 1
riques 1
iquement 1
▁milliers 1
▁nul 1
▁maximum 1
▁Ju 1
oly 1
▁récupé 1
▁Robert 1
▁mig 1
iscine 1
-3 1
▁exclus 1
▁outils 1
▁vision 1
▁2010 1
▁neuf 1
▁privil 1
xes 1
▁pieds 1
book 1
▁proven 1
▁vra 1
▁Japon 1
▁thème 1
▁Geor 1
urgence 1
élect 1
▁entend 1
▁90 1
▁locales 1
▁normes 1
rom 1
▁quelqu 1
▁Voi 1
▁siège 1
isé 1
▁exécu 1
achat 1
▁chiffre 1
▁ant 1
▁portant 1
▁pen 1
▁véhicules 1
90 1
▁seraient 1
inateur 1
exploitation 1
▁post 1
dessous 1
▁Ag 1
5% 1
▁bande 1
▁faudra 1
▁réforme 1
tements 1
▁apporter 1
▁kilom 1
▁réserve 1
lation 1
Afrique 1
▁go 1
▁Jacques 1
▁contemp 1
▁spectacle 1
investis 1
▁concent 1
▁session 1
▁révé 1
▁phénom 1
ligne 1
▁principalement 1
▁protéger 1
raison 1
▁meur 1
▁participants 1
▁récemment 1
▁célé 1
▁prison 1
▁Très 1
▁fournir 1
▁Mor 1
▁influ 1
▁chargé 1
▁David 1
itter 1
▁classique 1
▁ouverte 1
▁animaux 1
▁Avant 1
▁trou 1
▁bientôt 1
▁modification 1
▁vert 1
gén 1
▁méthode 1
ranger 1
ouvernement 1
▁commencer 1
▁préparation 1
osoph 1
▁dos 1
▁devoir 1
▁représentant 1
▁présentation 1
▁marchand 1
▁détails 1
▁Ri 1
duis 1
▁Ber 1
▁biens 1
où 1
exercice 1
▁fréqu 1
▁véhicule 1
▁atti 1
▁complément 1
attend 1
ley 1
QU 1
▁néanmoins 1
adresse 1
▁organismes 1
king 1
▁indique 1
▁Convention 1
ju 1
▁modifi 1
fication 1
initi 1
ald 1
▁trouverez 1
▁inten 1
▁coûts 1
80 1
▁entièrement 1
ren 1
no 1
▁phase 1
▁croire 1
▁montrer 1
▁décide 1
ouest 1
ault 1
dir 1
érale 1
▁caf 1
▁complète 1
▁changements 1
▁vieux 1
reur 1
▁mur 1
.000 1
▁découverte 1
▁scolaire 1
igueur 1
▁sold 1
▁2006 1
▁critique 1
▁lesquels 1
▁stand 1
▁secrétaire 1
▁renforcer 1
▁profonde 1
oe 1
▁œu 1
titution 1
▁améliorer 1
▁domicile 1
▁numérique 1
▁défaut 1
▁(4 1
▁Donc 1
PS 1
▁profond 1
▁El 1
ect 1
ossible 1
▁collaboration 1
▁certif 1
affaire 1
▁Loi 1
▁solid 1
▁principale 1
▁rejet 1
▁fruits 1
▁militaires 1
▁obtenu 1
▁Premier 1
▁inspi 1
▁graph 1
riel 1
ores 1
▁compét 1
▁avanc 1
▁proposé 1
▁méd 1
▁vigueur 1
▁mu 1
iblioth 1
▁inféri 1
▁comptes 1
▁supplémentaires 1
▁objets 1
▁séance 1
assurer 1
laire 1
▁civile 1
▁journal 1
▁associations 1
▁bâtiment 1
▁discip 1
▁morce 1
▁élus 1
▁relatives 1
▁RD 1
▁secteurs 1
ennent 1
▁théâtre 1
▁gratuit 1
▁arriver 1
▁indis 1
inet 1
Ou 1
gi 1
▁Lond 1
▁présents 1
▁belles 1
▁vain 1
osent 1
▁indic 1
pel 1
▁quin 1
▁pétro 1
▁regr 1
▁ajoute 1
▁naissance 1
ilibre 1
▁Lorsque 1
Ag 1
▁complètement 1
atte 1
▁enquête 1
▁portes 1
absence 1
tiens 1
▁annon 1
▁conseiller 1
▁Dès 1
▁nécessité 1
▁déclaration 1
RA 1
▁conserv 1
▁armes 1
ax 1
▁2005 1
îte 1
pris 1
urée 1
veille 1
hors 1
▁chauss 1
▁appelé 1
▁auteurs 1
ung 1
▁vertu 1
-200 1
alisée 1
▁capital 1
▁conscience 1
▁300 1
▁déch 1
▁fant 1
▁tribunal 1
eront 1
▁atteindre 1
▁radio 1
▁populaire 1
▁hor 1
inée 1
agée 1
gration 1
AIRE 1
▁employés 1
▁chiffres 1
▁Maison 1
▁classement 1
inal 1
▁connaissances 1
▁attention 1
ssage 1
▁établi 1
▁bonheur 1
tenus 1
▁visage 1
▁parlement 1
cles 1
▁sauf 1
sc 1
▁Quant 1
ogle 1
gramme 1
oue 1
cule 1
uxelles 1
▁terroris 1
▁signe 1
▁30, 1
▁Bour 1
fic 1
▁bus 1
▁édition 1
▁Ville 1
▁forcé 1
▁recevoir 1
oeu 1
▁extrême 1
Ass 1
▁Del 1
élection 1
ortement 1
atrième 1
▁progrès 1
mentation 1
▁pauvre 1
▁coin 1
offre 1
▁rac 1
▁chaîne 1
rég 1
▁Mad 1
▁mélange 1
▁établissements 1
▁réel 1
ames 1
▁TV 1
▁accueill 1
aid 1
glise 1
▁191 1
▁méthodes 1
agog 1
▁éd 1
agers 1
SS 1
▁suivants 1
▁Trans 1
▁propriété 1
▁ja 1
▁communiqué 1
impression 1
▁garder 1
érap 1
▁passant 1
▁Trois 1
▁futur 1
osant 1
mun 1
▁Sam 1
entrer 1
▁revient 1
▁demeure 1
▁aéri 1
autés 1
▁financiers 1
▁perdre 1
iée 1
▁vent 1
▁perte 1
▁endroit 1
▁coupe 1
leur 1
▁manger 1
▁coups 1
▁Pat 1
▁complé 1
Allemagne 1
▁Mes 1
▁artistes 1
▁locale 1
▁décid 1
▁remerci 1
▁mine 1
▁célèbre 1
▁organisation 1
▁Alex 1
▁technologies 1
▁2009 1
oo 1
Nous 1
verse 1
▁immob 1
▁télévision 1
miques 1
▁design 1
nés 1
osph 1
auc 1
étaient 1
▁cartes 1
▁construire 1
▁piscine 1
▁magnifique 1
▁patron 1
▁inqui 1
▁suivante 1
uelles 1
▁chant 1
tisme 1
▁actuelle 1
IG 1
▁Grande 1
rations 1
▁ara 1
IB 1
▁épis 1
pes 1
▁conséquences 1
RES 1
Is 1
heureusement 1
▁absolu 1
▁rejoin 1
▁mentionn 1
fice 1
PE 1
▁PC 1
exécu 1
▁Royaume 1
▁Parmi 1
▁ventes 1
▁délai 1
▁concurrence 1
▁émis 1
sons 1
▁conver 1
asc 1
osés 1
cieux 1
▁4, 1
▁aband 1
▁Canadi 1
lexe 1
». 1
▁sujets 1
▁province 1
rob 1
▁32 1
pt 1
aign 1
▁chaud 1
▁demandes 1
▁voud 1
▁rythme 1
tenue 1
ouvoir 1
oureux 1
▁vill 1
umé 1
▁époque 1
accomp 1
▁professeur 1
rin 1
▁devra 1
▁Cal 1
▁han 1
▁frapp 1
▁Gén 1
▁Auc 1
▁probablement 1
▁philosoph 1
▁retourn 1
agnes 1
▁fini 1
por 1
▁frère 1
ura 1
agent 1
gar 1
▁XV 1
▁merci 1
▁affec 1
▁traite 1
▁Oui 1
▁principes 1
▁internationales 1
▁Coupe 1
▁Pendant 1
▁intérêts 1
▁amen 1
▁comporte 1
▁médecin 1
▁fre 1
▁moderne 1
▁approche 1
▁poursu 1
mination 1
▁5. 1
▁diver 1
▁bra 1
▁financier 1
don 1
▁Em 1
▁image 1
atoires 1
alise 1
▁colon 1
▁conformément 1
▁victime 1
time 1
osée 1
rick 1
▁clairement 1
▁Prix 1
cipé 1
▁bain 1
▁Rom 1
▁distance 1
dia 1
▁joué 1
▁convient 1
▁fins 1
▁poser 1
duits 1
▁importants 1
tian 1
résil 1
▁from 1
▁tre 1
▁cité 1
▁auront 1
aye 1
▁subst 1
▁scientifique 1
êtres 1
▁dange 1
▁dirigeants 1
▁Bruxelles 1
eth 1
▁paris 1
▁trim 1
▁voulu 1
acités 1
▁traduction 1
▁profit 1
équi 1
dom 1
▁utilise 1
▁élector 1
▁château 1
▁Pourtant 1
▁ang 1
▁évidemment 1
install 1
▁VI 1
▁commentaires 1
matiques 1
▁distribution 1
erb 1
▁décor 1
unis 1
rité 1
▁PRO 1
examen 1
/201 1
▁propriétaire 1
rets 1
▁susp 1
▁conflit 1
▁maisons 1
▁répé 1
onses 1
érop 1
ômage 1
▁étape 1
icher 1
arr 1
Université 1
venus 1
▁élément 1
▁poursuivre 1
▁critères 1
▁patients 1
ertes 1
▁musul 1
▁recettes 1
▁préparer 1
▁(5 1
▁infra 1
▁centres 1
oulez 1
▁Voici 1
▁Malgré 1
▁événements 1
▁humaine 1
dier 1
ettres 1
▁Fer 1
▁croy 1
uil 1
▁Bro 1
ester 1
ye 1
ètes 1
▁soum 1
▁Ter 1
▁liés 1
▁cos 1
▁Tru 1
ourir 1
▁minimum 1
▁expliqué 1
▁compétition 1
▁élab 1
▁information 1
▁vaut 1
onte 1
enture 1
▁souligne 1
▁resse 1
▁nommé 1
terie 1
▁lance 1
bilités 1
▁capable 1
istan 1
▁juridique 1
▁vise 1
née 1
honneur 1
▁Rec 1
▁seuls 1
ouvertes 1
▁pertin 1
ussions 1
▁européens 1
▁poly 1
▁lancer 1
log 1
▁hos 1
▁ball 1
▁championnat 1
▁location 1
▁Cam 1
rs 1
▁Voir 1
▁ral 1
▁quantité 1
enez 1
▁reprise 1
criptions 1
ganisation 1
▁terrasse 1
▁crédit 1
TC 1
▁indispens 1
▁privée 1
▁kilomètres 1
▁football 1
▁propositions 1
▁côtés 1
▁eaux 1
▁Martin 1
utés 1
▁top 1
▁sor 1
▁européennes 1
▁jur 1
▁langues 1
uner 1
▁littéra 1
▁massi 1
bon 1
▁veille 1
▁Ligue 1
option 1
Au 1
▁Pal 1
▁totale 1
▁AC 1
▁gri 1
▁tes 1
ANT 1
▁simil 1
▁dédi 1
▁béb 1
▁Charles 1
tières 1
▁Hen 1
ricité 1
iennes 1
fr 1
▁bro 1
▁furent 1
▁affaire 1
▁Lu 1
chir 1
▁amp 1
▁sexe 1
▁tiss 1
▁end 1
▁modifier 1
▁réserv 1
▁intro 1
▁jeunesse 1
▁capacités 1
1) 1
▁connaît 1
▁intérêt 1
inique 1
osse 1
iz 1
dits 1
▁noter 1
▁réfug 1
▁2004 1
▁env 1
▁analyse 1
▁Toutes 1
oriz 1
pour 1
ué 1
▁transports 1
▁Gal 1
augment 1
▁allons 1
▁Leur 1
▁Cas 1
▁portée 1
ks 1
▁délég 1
tta 1
orisation 1
UI 1
▁circulation 1
▁enj 1
édération 1
élab 1
▁Google 1
▁régional 1
▁192 1
▁adultes 1
▁tor 1
▁postes 1
▁altern 1
▁Nos 1
▁handic 1
▁lende 1
▁visiteurs 1
▁signifie 1
Vous 1
▁Suisse 1
▁auxqu 1
truction 1
▁attendre 1
▁commer 1
▁pa 1
ocat 1
▁islam 1
huile 1
▁suit 1
opposition 1
▁Premi 1
lage 1
▁riche 1
▁Pers 1
▁restent 1
rev 1
▁Cro 1
▁déplac 1
▁scientifiques 1
▁circu 1
ood 1
▁has 1
▁Mari 1
▁pont 1
▁inves 1
utiliser 1
cepti 1
énagement 1
▁surveillance 1
▁quatrième 1
▁regret 1
▁matières 1
▁buts 1
▁rent 1
▁entier 1
▁lesquelles 1
▁utilisés 1
rale 1
▁démarche 1
êcher 1
ONU 1
▁Londres 1
▁contempor 1
▁chré 1
▁Né 1
stitut 1
▁lait 1
▁Ro 1
▁Mc 1
▁Bas 1
mêmes 1
ola 1
▁Sark 1
▁rencontres 1
ébéc 1
▁fallait 1
ôts 1
▁demain 1
areil 1
▁conception 1
UL 1
alisés 1
▁nationales 1
▁musée 1
▁Conc 1
▁Plusieurs 1
▁cheveux 1
vait 1
▁cant 1
▁chômage 1
▁réflexion 1
▁actuel 1
▁procès 1
visions 1
▁judiciaire 1
▁Ret 1
▁réponses 1
Uni 1
▁espagn 1
▁performance 1
▁(" 1
annonce 1
ows 1
▁bilan 1
.) 1
OI 1
▁Sc 1
dans 1
▁prévoit 1
ino 1
hou 1
▁cade 1
▁sympath 1
▁Euro 1
▁spécial 1
▁liqui 1
▁pâ 1
▁sert 1
uves 1
▁maître 1
▁afric 1
avons 1
espère 1
▁publication 1
environ 1
ey 1
▁banque 1
▁cyc 1
▁dehors 1
2) 1
▁maintien 1
cession 1
▁volume 1
tré 1
▁Juli 1
▁déterminer 1
▁réd 1
effic 1
heim 1
▁machine 1
▁voilà 1
licité 1
▁parole 1
▁Mag 1
▁téléchar 1
édé 1
▁transpar 1
▁lendemain 1
AGE 1
▁électrique 1
▁fen 1
▁convainc 1
ressé 1
piers 1
ky 1
▁moindre 1
▁caus 1
auff 1
▁Sén 1
erait 1
▁rur 1
estation 1
▁far 1
▁foi 1
▁Vo 1
▁Celui 1
entissage 1
osc 1
fier 1
ection 1
▁occasion 1
▁participé 1
▁Cô 1
extérieur 1
▁don 1
isté 1
vière 1
ozy 1
orient 1
autom 1
▁div 1
▁rêve 1
cienne 1
▁organisé 1
▁acquis 1
lure 1
▁acheter 1
▁alli 1
▁gross 1
▁moments 1
égalité 1
▁immédiatement 1
▁progressi 1
▁Grâce 1
▁III 1
▁explo 1
▁sentiment 1
▁Ed 1
▁café 1
▁remont 1
▁front 1
▁laissé 1
diques 1
▁auraient 1
▁enqu 1
▁température 1
Pierre 1
▁agents 1
▁33 1
▁estimé 1
ouvrir 1
ker 1
▁remise 1
▁Société 1
▁forum 1
▁regarder 1
▁espèces 1
▁fortement 1
▁Cong 1
▁boule 1
▁surprise 1
até 1
▁photograph 1
▁populations 1
▁retard 1
▁prévue 1
▁dialogue 1
▁offrir 1
▁recette 1
MA 1
▁Fre 1
▁soumis 1
▁interne 1
▁places 1
issait 1
▁certainement 1
▁Lyon 1
▁Jeux 1
▁nett 1
▁concept 1
▁communautaire 1
▁trouvent 1
phone 1
▁36 1
glet 1
▁britannique 1
▁Rapp 1
▁matern 1
existence 1
liquez 1
Ce 1
▁paiement 1
▁pharm 1
▁oublier 1
▁arch 1
▁définition 1
ws 1
▁franco 1
ott 1
▁intérieur 1
▁étrangers 1
▁passionn 1
▁heureux 1
MI 1
quie 1
▁brut 1
▁renouvel 1
▁confront 1
▁bate 1
▁mam 1
▁soutenir 1
▁comportement 1
allée 1
otes 1
▁ajouter 1
ypoth 1
▁festival 1
▁exac 1
▁mass 1
▁Air 1
▁pouvant 1
▁pouvons 1
70 1
▁banques 1
▁impossible 1
▁chercheurs 1
▁cellu 1
riculture 1
TER 1
▁attribu 1
▁sit 1
▁fournit 1
▁forêt 1
▁plat 1
▁sciences 1
gie 1
▁Gouvernement 1
▁privilég 1
prét 1
▁mou 1
étranger 1
▁affirme 1
▁tar 1
▁métier 1
▁allait 1
▁âge 1
▁Sous 1
▁verre 1
▁dispositif 1
études 1
orth 1
▁chanson 1
▁Wi 1
▁quitter 1
ray 1
informations 1
umer 1
▁rencontrer 1
▁5, 1
▁tenter 1
▁chinois 1
▁boul 1
▁préoccup 1
▁négociations 1
▁), 1
▁conseill 1
tionnaire 1
▁collabor 1
▁importantes 1
▁multiples 1
▁Facebook 1
▁froid 1
▁Don 1
▁policiers 1
vaux 1
onique 1
▁handicap 1
ami 1
usion 1
▁Bernard 1
▁remettre 1
▁rejoindre 1
itants 1
▁chefs 1
▁Hollande 1
▁recons 1
▁motiv 1
▁marques 1
▁reprises 1
▁prévention 1
▁soin 1
▁fid 1
▁supérieure 1
▁mini 1
▁composé 1
idité 1
▁vice 1
▁vég 1
▁spécifiques 1
▁rand 1
▁puiss 1
▁produire 1
PR 1
Qu 1
anes 1
yst 1
▁voyageurs 1
cte 1
▁sucre 1
▁pouvoirs 1
▁Inter 1
emple 1
▁électronique 1
ondes 1
▁Afrique 1
université 1
▁possibilités 1
▁Toul 1
▁reconnu 1
usses 1
lisation 1
▁grave 1
▁bén 1
▁forcément 1
▁idéal 1
▁céléb 1
Par 1
▁faibles 1
▁prét 1
▁utilisation 1
▁signal 1
▁voitures 1
▁Allemagne 1
3) 1
▁ciel 1
▁sommet 1
▁plage 1
▁human 1
rants 1
▁conduit 1
▁principales 1
▁logiciel 1
▁venu 1
ouvrez 1
imag 1
RAN 1
▁liées 1
▁sond 1
auf 1
▁bloc 1
▁Sarkozy 1
hiver 1
oubli 1
oirs 1
▁consommateurs 1
effet 1
opéra 1
-201 1
▁présidentielle 1
mant 1
xion 1
▁(6 1
oto 1
avance 1
issue 1
▁maintenir 1
▁complexe 1
▁Programme 1
▁génération 1
▁contient 1
obile 1
▁faciliter 1
investissement 1
onnés 1
▁lettres 1
▁légèrement 1
▁modes 1
▁défait 1
▁nationaux 1
ologue 1
▁discu 1
rimé 1
êtements 1
▁acqu 1
▁avions 1
▁compéti 1
▁découvert 1
▁utile 1
▁Tw 1
ander 1
▁canadien 1
▁vouloir 1
▁actes 1
ney 1
▁élu 1
▁guide 1
astro 1
▁Dani 1
▁fabri 1
ements 1
-4 1
ieuse 1
▁conser 1
▁CD 1
▁signé 1
aider 1
berg 1
▁japon 1
ismes 1
effec 1
15 1
▁Lo 1
▁mens 1
tug 1
lés 1
▁format 1
arme 1
▁gérer 1
▁difficulté 1
▁racont 1
sté 1
gées 1
▁porté 1
▁vérité 1
iteurs 1
retagne 1
▁vide 1
èche 1
▁consiste 1
cool 1
mail 1
▁visiter 1
▁canadienne 1
ilé 1
reuve 1
▁Fab 1
▁Pi 1
ty 1
▁record 1
lige 1
ST 1
▁eau 1
▁reprendre 1
▁arrêté 1
▁particuliers 1
aises 1
▁démocratie 1
istique 1
▁ray 1
▁décla 1
tab 1
▁esc 1
▁bénéficier 1
▁Mer 1
▁arrière 1
▁structures 1
▁allez 1
▁conduite 1
▁POUR 1
légu 1
agements 1
▁échanges 1
▁mani 1
▁suscepti 1
▁consulter 1
▁commis 1
▁Lé 1
▁diffusion 1
▁Rich 1
bit 1
▁appli 1
▁envers 1
dent 1
▁passion 1
▁végét 1
▁voulez 1
iliser 1
!! 1
go 1
▁déje 1
▁Minist 1
▁montagne 1
▁pédagog 1
▁procédures 1
cel 1
instru 1
appui 1
dy 1
▁Banque 1
▁reconnaissance 1
CEE 1
▁tap 1
▁Nouvelle 1
▁dérou 1
▁relativement 1
quette 1
arn 1
itions 1
▁400 1
▁intitu 1
utri 1
▁terres 1
▁mm 1
▁russe 1
ouveau 1
dation 1
▁humain 1
enant 1
DF 1
▁arrivée 1
▁Terre 1
▁élimin 1
▁atten 1
▁beaux 1
▁dynamique 1
phe 1
▁circonst 1
▁respecter 1
▁bomb 1
▁humaines 1
oué 1
ca 1
▁recueil 1
▁Ann 1
▁humains 1
▁PL 1
expression 1
▁beauté 1
▁crimin 1
▁tirer 1
éth 1
▁géné 1
conte 1
▁logique 1
▁Por 1
▁jui 1
▁champion 1
▁absolument 1
▁prennent 1
alestin 1
▁opération 1
jus 1
▁danger 1
▁Vic 1
wa 1
vées 1
allé 1
▁statistiques 1
inion 1
▁Mic 1
▁Laurent 1
▁garantie 1
accep 1
▁Claude 1
▁assi 1
▁titu 1
ocu 1
▁bleu 1
enfants 1
▁complex 1
▁fleurs 1
▁centaines 1
ification 1
▁prêts 1
chées 1
▁pé 1
▁Monsieur 1
▁Maur 1
▁discri 1
exposition 1
▁précédent 1
▁financières 1
▁cheval 1
▁chapitre 1
▁école 1
uk 1
usage 1
▁entrée 1
▁bouche 1
érir 1
veau 1
ône 1
gleterre 1
▁tranqu 1
▁avantages 1
▁Ensuite 1
ériques 1
▁UN 1
▁devez 1
▁fame 1
pit 1
ibliothèque 1
ulé 1
▁gratuitement 1
-19 1
▁carb 1
aments 1
▁printemps 1
▁secondes 1
▁salles 1
▁pér 1
▁affirmé 1
▁cesse 1
OG 1
▁limites 1
▁150 1
▁Prof 1
▁intéressant 1
▁vidéos 1
assé 1
▁internationaux 1
▁Dispon 1
▁SA 1
▁particulière 1
▁fédéral 1
cie 1
▁exigences 1
▁nette 1
▁appropri 1
▁ouvrage 1
▁Ham 1
efficacité 1
19 1
▁américains 1
Et 1
▁mouvements 1
▁considéré 1
▁fit 1
ington 1
▁bac 1
▁2012, 1
▁masse 1
▁art 1
▁souligné 1
25 1
▁Quelques 1
olue 1
ata 1
Organisation 1
▁domin 1
▁essentiellement 1
FA 1
▁augmentation 1
▁adopté 1
▁pâte 1
▁soldats 1
▁participe 1
▁député 1
▁définir 1
▁Prin 1
▁prévues 1
▁bul 1
▁résidence 1
▁préal 1
▁commercial 1
réd 1
▁mener 1
uellement 1
▁vraie 1
▁rémun 1
ruption 1
mbler 1
LI 1
▁Bureau 1
TT 1
NC 1
▁Cent 1
▁03. 1
ham 1
▁impres 1
▁fournisse 1
▁facteurs 1
obtenir 1
▁doig 1
▁occident 1
▁pollu 1
▁chute 1
▁noms 1
oritaire 1
▁tente 1
agir 1
range 1
▁peup 1
ômes 1
▁Imp 1
▁classes 1
▁Tot 1
▁situations 1
▁menace 1
émie 1
▁fêtes 1
olat 1
▁auquel 1
▁pom 1
▁2003 1
▁bataille 1
▁étrangères 1
▁Règ 1
▁meu 1
▁résistance 1
▁Anne 1
▁Bo 1
▁clé 1
▁prestations 1
▁utilisant 1
▁raconte 1
▁advers 1
▁frag 1
▁montré 1
▁Ali 1
fique 1
▁conséquence 1
▁assuré 1
évé 1
▁écou 1
▁réflé 1
cha 1
▁fabrication 1
voyer 1
ji 1
▁climat 1
▁Bul 1
▁panne 1
andre 1
▁suivantes 1
▁navi 1
▁recommandations 1
▁ru 1
tures 1
▁réduit 1
ffice 1
meub 1
▁sugg 1
▁réussite 1
monie 1
▁pierre 1
▁renforce 1
▁susc 1
▁légiti 1
▁aspects 1
▁partenariat 1
égal 1
▁190 1
omas 1
quait 1
▁promouvoir 1
▁territori 1
uter 1
égard 1
▁Isra 1
cier 1
▁million 1
agés 1
▁doule 1
▁phénomène 1
uni 1
VE 1
ataire 1
▁conséquent 1
▁tél 1
▁2002 1
▁meilleures 1
▁Tor 1
intervention 1
▁Journ 1
niversaire 1
▁vaste 1
laires 1
oyen 1
▁journaliste 1
ram 1
illée 1
▁Parce 1
igneur 1
▁Sim 1
rag 1
▁précisé 1
cide 1
itations 1
riers 1
/200 1
▁transfert 1
De 1
deur 1
▁trafic 1
tue 1
hôpital 1
union 1
▁Van 1
chn 1
▁extrêmement 1
▁convention 1
ureaux 1
▁Aux 1
▁mobile 1
▁dessin 1
avez 1
▁chanti 1
▁débar 1
▁possibles 1
▁exclusi 1
intégration 1
▁dév 1
▁journalistes 1
aug 1
Ouest 1
▁missions 1
iler 1
▁annonces 1
▁34 1
attention 1
▁rig 1
seille 1
demn 1
▁gouvernements 1
ésus 1
parole 1
▁association 1
▁appris 1
▁tradition 1
▁Gui 1
▁monu 1
▁situe 1
▁San 1
aisser 1
▁Kar 1
▁municipal 1
Ex 1
▁quotidi 1
▁Plan 1
▁utilisée 1
▁née 1
instant 1
▁disque 1
ols 1
▁poursuit 1
eut 1
▁contribution 1
▁épouse 1
▁métal 1
▁donnent 1
▁Peut 1
cupe 1
▁pur 1
▁tro 1
▁RDV 1
▁truc 1
▁Gl 1
▁pire 1
▁offres 1
▁appelle 1
▁agricole 1
▁françaises 1
istant 1
ancé 1
registre 1
▁Main 1
arrê 1
▁chacune 1
yl 1
FF 1
ayer 1
▁by 1
▁effectué 1
euille 1
▁vivant 1
hésion 1
▁restaurant 1
▁supplémentaire 1
utation 1
▁propor 1
▁apparaît 1
▁ordre 1
tiennent 1
armes 1
III 1
▁nucléaire 1
économ 1
▁calend 1
12 1
▁effectuer 1
▁exploit 1
OUS 1
At 1
▁crème 1
▁matchs 1
▁inscrit 1
▁conserver 1
▁dois 1
▁Alain 1
▁décrit 1
▁joie 1
▁bébé 1
▁espaces 1
vidus 1
▁entendre 1
▁ministres 1
▁remis 1
▁-- 1
▁connec 1
mans 1
▁pensée 1
▁délic 1
▁mauvaise 1
cole 1
▁apprendre 1
▁CR 1
▁marqué 1
▁Bi 1
▁48 1
▁anne 1
ôles 1
Ph 1
▁potentiel 1
▁Dim 1
▁Den 1
▁obligatoire 1
orique 1
▁expé 1
▁trés 1
▁entour 1
▁contribuer 1
tise 1
▁rare 1
azz 1
ître 1
▁prolong 1
▁applic 1
▁lyc 1
ît 1
▁chaleur 1
Espagne 1
▁experts 1
▁esprit 1
onction 1
éber 1
▁synth 1
▁médecins 1
▁Dr 1
can 1
▁diplom 1
échelle 1
▁arrivé 1
ensité 1
▁confortable 1
mart 1
▁planète 1
paravant 1
contre 1
isée 1
▁grec 1
▁rappeler 1
rict 1
rairie 1
▁net 1
▁Vers 1
▁responsab 1
▁attra 1
Amérique 1
▁correc 1
▁logements 1
ataires 1
▁Lire 1
▁simples 1
ends 1
écri 1
osées 1
▁cre 1
▁destination 1
olf 1
▁radic 1
éroport 1
▁Autre 1
▁Bal 1
▁lis 1
▁tourisme 1
▁territoires 1
▁commentaire 1
▁Dan 1
▁doub 1
dépend 1
▁dette 1
affir 1
apes 1
SP 1
▁adresse 1
▁conclu 1
tuelle 1
▁Jésus 1
▁constituent 1
▁réclam 1
▁pointe 1
tionnels 1
▁sérieux 1
rak 1
▁MA 1
arrêt 1
▁trimestre 1
▁suffisamment 1
Cl 1
▁enregistre 1
▁Port 1
UC 1
▁CN 1
▁Her 1
▁Secrétaire 1
11 1
▁lâ 1
▁tombe 1
identité 1
▁(200 1
ussion 1
▁adjoint 1
▁contrats 1
▁75 1
▁archite 1
▁enne 1
élaboration 1
▁faux 1
▁barre 1
Ad 1
▁blo 1
▁œuvres 1
▁AN 1
▁sing 1
▁gare 1
landais 1
▁État 1
); 1
exécution 1
veurs 1
rient 1
▁députés 1
▁faudrait 1
▁reçoit 1
▁régionale 1
sée 1
▁chan 1
▁Mil 1
▁fonctionne 1
Si 1
▁bio 1
▁musici 1
▁SE 1
▁collectivités 1
aluer 1
cad 1
▁représentent 1
▁voici 1
Com 1
érard 1
▁Sainte 1
▁primaire 1
ographiques 1
vrez 1
mie 1
▁accro 1
ube 1
▁peinture 1
▁notes 1
▁auteur 1
▁évalu 1
▁démocratique 1
ga 1
intention 1
▁invités 1
mosph 1
▁catégories 1
▁2001 1
▁performances 1
▁communautés 1
▁Bref 1
▁central 1
▁bu 1
▁procure 1
▁examen 1
▁AR 1
own 1
hésitez 1
▁secret 1
▁genti 1
▁clés 1
ties 1
iant 1
▁Voilà 1
▁science 1
▁acte 1
iale 1
nom 1
▁collectif 1
▁dimension 1
▁sinon 1
rante 1
▁maladies 1
▁allant 1
▁(7 1
▁collège 1
▁émissions 1
▁EUR 1
▁accessible 1
her 1
▁commiss 1
▁talent 1
▁emprun 1
▁bureaux 1
issez 1
▁Santé 1
agnos 1
▁décès 1
▁attendant 1
▁récomp 1
lut 1
▁investissements 1
ral 1
▁longueur 1
▁pros 1
▁enseignants 1
itées 1
▁religion 1
▁arr 1
▁visible 1
▁emplois 1
▁systé 1
▁construit 1
osité 1
mann 1
pas 1
entin 1
rétariat 1
▁Pos 1
▁rentrée 1
▁pla 1
attaque 1
▁relève 1
▁critiques 1
▁Découvrez 1
%. 1
▁magasin 1
▁considérable 1
ael 1
▁We 1
▁labor 1
▁2015, 1
viennent 1
▁dossiers 1
▁apporte 1
▁Syrie 1
nées 1
Institut 1
▁dure 1
▁Fédération 1
▁Res 1
▁argu 1
▁Guerre 1
Italie 1
▁échapp 1
▁directive 1
▁déchets 1
▁Christian 1
▁rob 1
▁6. 1
▁Form 1
crits 1
▁diversité 1
▁he 1
▁rivière 1
▁Monde 1
ésie 1
▁consultation 1
oyez 1
▁voulait 1
▁2013, 1
▁donnée 1
Une 1
agence 1
▁Ceci 1
▁autonom 1
▁Service 1
▁récol 1
▁devenue 1
installation 1
▁couverture 1
▁chaleure 1
▁Haut 1
ERS 1
nel 1
olesc 1
▁pure 1
▁Gi 1
▁livraison 1
ID 1
piration 1
▁erreur 1
▁rues 1
▁2011, 1
▁content 1
téph 1
eld 1
améliorer 1
▁fréquent 1
▁Direc 1
▁indispensable 1
lusions 1
▁repris 1
▁Moi 1
▁glis 1
▁Oli 1
▁dévo 1
▁législation 1
view 1
ébécois 1
▁réception 1
▁parois 1
prétation 1
abb 1
▁Ministère 1
▁FC 1
▁Là 1
▁culturel 1
▁Gre 1
ologne 1
▁grosse 1
▁2014, 1
▁finir 1
▁42 1
▁agricoles 1
▁tomber 1
otion 1
▁semblent 1
LES 1
▁défendre 1
ja 1
▁déjeuner 1
▁magaz 1
oudre 1
▁ign 1
avier 1
vit 1
▁reli 1
▁Lux 1
ila 1
ko 1
ogne 1
▁Grèce 1
▁Jo 1
▁égard 1
▁médicaments 1
échange 1
▁Trump 1
▁leader 1
▁changé 1
ancy 1
appro 1
▁danse 1
chives 1
▁lux 1
▁rass 1
ocole 1
orée 1
rime 1
▁organisée 1
ellent 1
▁trente 1
▁devons 1
-5 1
tile 1
▁longues 1
▁CO 1
▁AV 1
appartement 1
▁priorité 1
igu 1
▁Vill 1
▁Super 1
▁vêtements 1
▁cycle 1
impact 1
eni 1
▁wh 1
▁37 1
rect 1
▁expériment 1
▁revue 1
▁alimentaire 1
▁sensible 1
agi 1
▁devront 1
▁chansons 1
▁Alle 1
▁signific 1
▁radi 1
▁Fonds 1
▁officielle 1
the 1
▁6, 1
▁fermet 1
imes 1
tionnelles 1
▁frontière 1
gérie 1
igner 1
CO 1
ary 1
▁Petit 1
▁cérémonie 1
▁goû 1
▁événement 1
▁Aussi 1
espoir 1
▁Patrick 1
▁Télé 1
▁héros 1
pin 1
▁troupes 1
hier 1
▁légère 1
▁blanche 1
èlement 1
▁revi 1
▁parall 1
▁lecteur 1
esses 1
▁plantes 1
▁stratégique 1
lits 1
▁Vos 1
▁piste 1
rices 1
▁vérifier 1
▁spécifique 1
to 1
▁modern 1
▁param 1
▁obser 1
▁2010, 1
▁Rome 1
France 1
▁catastro 1
▁annuel 1
▁propriétaires 1
▁remarqu 1
▁38 1
▁essayer 1
▁Daniel 1
▁obligations 1
▁neige 1
umes 1
▁reprend 1
ica 1
inqui 1
▁merveille 1
tons 1
▁officiel 1
oeuvre 1
▁monter 1
ld 1
▁réellement 1
▁Sar 1
▁engagement 1
▁Poli 1
▁division 1
sbourg 1
▁rares 1
oft 1
onyme 1
▁spéciale 1
▁sén 1
émission 1
inv 1
▁crée 1
▁isra 1
IX 1
▁ench 1
Bas 1
▁réalisée 1
▁appartement 1
▁nat 1
▁défi 1
ource 1
▁André 1
▁ancienne 1
▁conç 1
▁pel 1
▁perspective 1
hor 1
lais 1
estes 1
14 1
▁Rien 1
▁frères 1
▁Disponible 1
tification 1
▁naturelle 1
▁SUR 1
▁brû 1
▁calendrier 1
▁rejoint 1
adis 1
▁religieux 1
▁sch 1
apprentissage 1
▁bâtiments 1
AFP 1
▁souhaitez 1
▁métro 1
entretien 1
chec 1
▁exige 1
▁Total 1
▁vélo 1
▁Celle 1
▁Pen 1
▁maîtrise 1
▁Marseille 1
▁minute 1
ution 1
▁réfugiés 1
édition 1
GE 1
▁murs 1
▁Conférence 1
agriculture 1
▁charges 1
▁spir 1
▁appareils 1
atin 1
manuel 1
onnant 1
▁considère 1
keting 1
▁normal 1
ries 1
▁Brésil 1
▁formule 1
▁travaillé 1
▁sel 1
▁tarif 1
▁Thé 1
▁catalogue 1
▁délégation 1
▁rub 1
▁score 1
▁constat 1
▁bases 1
éraux 1
écran 1
▁Vol 1
▁Bur 1
▁littérature 1
enregistre 1
▁vul 1
bi 1
▁2008, 1
réhension 1
▁prés 1
▁ceci 1
▁certes 1
archite 1
▁brill 1
identif 1
▁attaque 1
SC 1
▁intéri 1
▁exactement 1
▁étro 1
▁optim 1
tième 1
%, 1
▁personnels 1
▁indépendant 1
▁Guy 1
dra 1
▁justement 1
▁producteurs 1
▁coordination 1
icat 1
▁souver 1
▁prestation 1
▁compens 1
▁access 1
▁menac 1
▁déri 1
amélioration 1
▁usage 1
▁venus 1
érations 1
années 1
▁él 1
net 1
▁placé 1
▁Fait 1
▁référ 1
gin 1
user 1
ouvre 1
▁quart 1
▁formations 1
ket 1
▁dizaine 1
érés 1
▁Kh 1
intég 1
▁historiques 1
ANS 1
▁modalités 1
▁noire 1
BC 1
▁représentation 1
." 1
▁incont 1
▁fir 1
▁Op 1
▁XX 1
▁promen 1
▁confirmé 1
▁déclen 1
▁combin 1
▁pleinement 1
tones 1
▁dégra 1
illiam 1
▁Haute 1
gyp 1
▁Bay 1
▁Mat 1
▁Thomas 1
album 1
▁transition 1
ordeaux 1
▁découvre 1
aujourd 1
▁tempor 1
acteur 1
▁aurez 1
olymp 1
▁pilote 1
▁crain 1
▁mettent 1
▁Italie 1
▁relatif 1
▁55 1
▁disent 1
▁connue 1
▁dizaines 1
▁myth 1
▁canton 1
ory 1
▁tâche 1
▁partenaire 1
fices 1
▁frontières 1
▁compati 1
▁recommande 1
PI 1
▁discussions 1
▁Af 1
tissement 1
chon 1
INE 1
▁excellent 1
▁Vis 1
ouche 1
▁soign 1
▁circonstances 1
▁plong 1
45 1
▁Ke 1
▁enjeux 1
core 1
▁établissement 1
▁rembour 1
▁scul 1
ilib 1
▁approuv 1
ight 1
ordinaire 1
cuper 1
▁boîte 1
▁feuilles 1
▁Maroc 1
▁matériaux 1
▁révolution 1
▁essentiel 1
PA 1
employ 1
▁Stéph 1
▁côte 1
més 1
kin 1
▁parfaite 1
▁écran 1
▁présidence 1
endi 1
▁impressionn 1
▁espèce 1
▁fan 1
▁garantir 1
▁applications 1
ochtones 1
▁chocolat 1
▁manifestations 1
▁vécu 1
▁Luc 1
olie 1
▁séqu 1
ya 1
▁traiter 1
▁circuit 1
▁favoriser 1
rine 1
▁mol 1
oseph 1
iterran 1
▁fleur 1
▁fraî 1
stac 1
agu 1
▁hommage 1
étant 1
▁tur 1
▁manifestation 1
▁impré 1
13 1
TRE 1
▁échange 1
▁formul 1
▁morceaux 1
ancienne 1
▁Règlement 1
▁conflits 1
aimer 1
.2 1
▁familiale 1
▁cabinet 1
▁artistique 1
illets 1
étiques 1
▁invite 1
▁tourner 1
▁précisément 1
▁Mé 1
eue 1
▁Turquie 1
▁légumes 1
▁gend 1
Agence 1
▁cens 1
▁mettant 1
▁conj 1
▁Gab 1
▁invent 1
▁pauvreté 1
oxy 1
▁jet 1
▁éduc 1
▁expliquer 1
▁félic 1
▁défic 1
▁olymp 1
▁délégu 1
tins 1
▁air 1
▁donnant 1
▁offert 1
▁instruments 1
▁profil 1
écriture 1
▁initiatives 1
▁former 1
▁accords 1
ports 1
▁cancer 1
▁2007, 1
▁encoura 1
rien 1
▁commerciale 1
▁Ah 1
human 1
▁amén 1
▁effectivement 1
▁inclus 1
▁Gérard 1
▁fiche 1
initiative 1
▁harm 1
▁déplacement 1
▁parking 1
▁viande 1
▁pes 1
▁scolaires 1
▁Der 1
entique 1
▁ind 1
autorité 1
▁Er 1
▁1999 1
▁installations 1
▁villages 1
▁disponibilité 1
▁spiritu 1
▁provis 1
▁discussion 1
▁bénév 1
▁globale 1
ulte 1
aurais 1
▁2016, 1
ercle 1
▁affich 1
ban 1
lor 1
▁clubs 1
▁beur 1
▁gagné 1
▁abou 1
▁potenti 1
▁secours 1
▁Code 1
ématiques 1
engagement 1
nis 1
▁courage 1
▁opport 1
▁adress 1
▁fonctionnaires 1
▁Trib 1
▁appuy 1
▁continent 1
quin 1
▁lutter 1
antill 1
▁scru 1
▁voies 1
artiste 1
fié 1
▁réalisés 1
mo 1
commun 1
▁meurt 1
▁fol 1
▁déploy 1
▁exposition 1
alie 1
isez 1
▁thèmes 1
▁individus 1
▁révèle 1
▁composition 1
▁William 1
▁souci 1
▁récit 1
Marie 1
orp 1
▁Ec 1
▁peuples 1
▁Angel 1
▁gratuite 1
▁notion 1
▁impli 1
équilibre 1
▁pétrole 1
Fran 1
und 1
▁colis 1
▁étudier 1
aurait 1
▁sensib 1
▁répondu 1
▁biais 1
▁GR 1
▁médecine 1
▁étapes 1
▁amour 1
▁spécialiste 1
▁chances 1
indows 1
roniques 1
tration 1
arition 1
▁amateurs 1
▁Ici 1
4) 1
▁guit 1
tuel 1
▁prochaines 1
▁terminé 1
▁conven 1
▁superbe 1
▁39 1
▁différent 1
▁Dou 1
▁salaire 1
▁Mas 1
ÉS 1
▁Lab 1
▁scénario 1
adoption 1
▁2009, 1
lect 1
▁instant 1
▁Twitter 1
oblig 1
▁sauv 1
▁rédi 1
▁Lac 1
▁responsabilités 1
igration 1
▁monn 1
uffis 1
6) 1
▁réelle 1
▁théorie 1
▁modifications 1
▁combien 1
ache 1
▁ram 1
liste 1
président 1
▁7, 1
ms 1
▁As 1
▁mété 1
▁patient 1
incent 1
ae 1
▁remporté 1
▁hui 1
▁Hier 1
▁vallée 1
▁taxe 1
▁entrer 1
▁Sou 1
rac 1
tait 1
larg 1
ial 1
/5 1
▁coûte 1
assade 1
▁socialiste 1
▁Nancy 1
▁équipée 1
▁pauvres 1
") 1
tario 1
▁caméra 1
▁Chambre 1
iv 1
ym 1
▁Christoph 1
75 1
▁passée 1
▁milliard 1
/9 1
endue 1
▁favorable 1
▁créée 1
bas 1
quante 1
▁ST 1
luence 1
▁sauver 1
▁Es 1
ducteur 1
ashington 1
erv 1
œil 1
side 1
▁serez 1
▁lancement 1
▁satisfait 1
▁cong 1
▁plainte 1
▁exerc 1
▁accueillir 1
▁jaune 1
nant 1
▁licence 1
aisons 1
Association 1
oigne 1
IM 1
▁Inc 1
▁expériences 1
▁aper 1
▁solidarité 1
▁mérite 1
ultures 1
▁librairie 1
▁fourni 1
ieur 1
▁diagnos 1
▁Brun 1
▁rose 1
▁active 1
▁tarifs 1
OIR 1
▁envoyé 1
▁collègues 1
▁croit 1
▁réaction 1
▁transformation 1
▁uns 1
▁réunions 1
▁concernés 1
fer 1
▁procédé 1
▁doux 1
▁(8 1
▁Club 1
▁apport 1
▁ly 1
▁préféré 1
▁isol 1
lées 1
▁Quelle 1
▁compli 1
avaient 1
▁langage 1
▁mention 1
▁silence 1
▁ling 1
valent 1
dépendance 1
tera 1
▁2015. 1
▁Mex 1
▁interven 1
▁Jack 1
▁vivent 1
▁tournée 1
▁AD 1
▁déroul 1
▁compétence 1
▁fans 1
▁Ceux 1
▁voisins 1
innovation 1
▁ski 1
▁toucher 1
▁remplacer 1
▁aimé 1
adore 1
▁bruit 1
aménagement 1
▁séries 1
▁Strasbourg 1
▁sourire 1
▁Actu 1
▁profondeur 1
érée 1
35 1
▁Av 1
▁2012. 1
▁publicité 1
▁stratégies 1
oton 1
▁déplace 1
▁constaté 1
▁repos 1
▁parent 1
▁visites 1
nie 1
▁ordinateur 1
rible 1
URE 1
électricité 1
uation 1
▁chante 1
timis 1
Pro 1
tur 1
▁jugement 1
▁condamné 1
alisées 1
ling 1
▁chien 1
▁appareil 1
▁républic 1
impôt 1
▁détru 1
▁attentes 1
▁ouvre 1
▁chim 1
▁conclusions 1
-6 1
▁rock 1
vue 1
▁basse 1
▁débats 1
alcool 1
▁math 1
▁israéli 1
▁courte 1
▁44 1
▁inconn 1
▁poign 1
▁restauration 1
▁accepté 1
▁reconnaître 1
▁therm 1
▁désir 1
actualité 1
▁augmenté 1
▁65 1
▁anniversaire 1
▁Washington 1
▁retrouvé 1
orb 1
lantique 1
▁augmenter 1
onf 1
▁courriel 1
▁pain 1
▁600 1
▁Math 1
▁Cath 1
▁marchandises 1
18 1
moi 1
▁fati 1
▁occas 1
▁Met 1
▁tonnes 1
▁tournoi 1
tront 1
▁innov 1
▁fichiers 1
euf 1
grédi 1
▁scand 1
ationale 1
▁extérieur 1
▁Colomb 1
▁Lor 1
▁JO 1
habitude 1
▁utilisées 1
▁Sin 1
▁mê 1
▁Bordeaux 1
▁interdit 1
▁démons 1
▁Présent 1
▁saur 1
umul 1
▁fichier 1
▁parvenir 1
▁Nor 1
▁var 1
pole 1
QUES 1
▁Jusqu 1
▁messages 1
▁voisin 1
▁culturelle 1
▁défaite 1
▁studio 1
kh 1
arb 1
▁hasard 1
▁mille 1
SA 1
▁!!! 1
aissez 1
▁transp 1
chauff 1
▁terrorisme 1
▁sûre 1
▁Mul 1
rise 1
▁menée 1
▁avantage 1
▁hiver 1
▁difficiles 1
rans 1
▁personnelle 1
▁blan 1
▁sauve 1
▁pluie 1
▁DÉ 1
▁puissent 1
audi 1
éviter 1
▁organise 1
▁précédente 1
▁stim 1
▁litté 1
▁lié 1
▁manipul 1
▁Cat 1
▁expli 1
▁couples 1
amin 1
▁ultra 1
▁vérit 1
umeur 1
▁2006, 1
▁décret 1
▁IV 1
lim 1
▁venue 1
aéroport 1
▁diam 1
bie 1
médiaire 1
▁allemande 1
▁lycée 1
▁ache 1
▁parfum 1
▁charme 1
▁naturelles 1
▁bis 1
▁finance 1
oyage 1
▁admi 1
▁auparavant 1
▁admis 1
▁Long 1
mais 1
aval 1
▁limiter 1
▁rendement 1
▁survi 1
lines 1
▁Direction 1
▁Rol 1
▁développé 1
▁informatique 1
▁curi 1
écurité 1
▁Fil 1
▁fixe 1
FR 1
▁trait 1
▁cuir 1
▁hés 1
exception 1
dou 1
▁dig 1
arrière 1
▁unités 1
▁allé 1
▁MAR 1
▁COMM 1
▁finances 1
ush 1
▁incroy 1
▁gagne 1
inaires 1
▁privés 1
▁évolution 1
adame 1
▁anc 1
table 1
▁écrire 1
▁boute 1
▁mys 1
▁renforcement 1
▁qualités 1
▁2014. 1
▁flux 1
èdent 1
▁provenant 1
▁actifs 1
▁Bourg 1
▁progression 1
▁énergie 1
▁régionales 1
▁consacré 1
▁équipements 1
▁Fréd 1
17 1
▁plaf 1
IA 1
▁accompagné 1
cidents 1
▁constater 1
▁sentir 1
gr 1
▁communiquer 1
▁franch 1
▁lecteurs 1
▁syndicats 1
▁Services 1
▁Macron 1
▁quartiers 1
ressions 1
▁réglementation 1
▁rencontré 1
Dans 1
▁majeur 1
▁plateau 1
▁export 1
▁tests 1
▁raisonn 1
▁industrielle 1
erte 1
▁réalise 1
▁paraît 1
▁cellules 1
▁spécialistes 1
▁illég 1
▁tuer 1
quisition 1
▁barb 1
▁chat 1
rase 1
▁boutique 1
▁dépôt 1
▁extéri 1
▁conduire 1
ineux 1
écl 1
▁jolie 1
▁douche 1
▁conçu 1
▁intégra 1
▁regroup 1
▁solide 1
▁fortes 1
▁bap 1
▁champs 1
▁déte 1
▁Europé 1
▁prenant 1
▁Bos 1
▁­ 1
structures 1
▁disting 1
▁produc 1
endroit 1
▁Moyen 1
▁engagé 1
▁siècles 1
▁divis 1
UB 1
▁cib 1
arts 1
▁montée 1
ings 1
sif 1
olis 1
32 1
▁beurre 1
arre 1
▁cuisson 1
▁(18 1
▁foyer 1
prendre 1
ider 1
ft 1
▁tabl 1
présent 1
▁ingén 1
▁déclarations 1
▁pensé 1
▁économie 1
ena 1
ala 1
▁Bre 1
▁annonc 1
▁accident 1
▁Affaires 1
plus 1
▁config 1
existe 1
▁recul 1
rome 1
▁dangereux 1
way 1
chat 1
▁Beaucoup 1
▁satisfaction 1
▁montrent 1
▁Dép 1
ayant 1
▁encourage 1
▁Lun 1
phones 1
▁belge 1
▁Bri 1
▁racc 1
▁46 1
▁Jér 1
lec 1
▁machines 1
▁proposés 1
▁avance 1
▁Windows 1
▁importe 1
▁Sé 1
▁autrement 1
augmentation 1
▁tâches 1
rôle 1
▁procéder 1
▁déclin 1
ustralie 1
▁importance 1
tension 1
▁report 1
IER 1
fection 1
dium 1
▁180 1
trait 1
▁2000, 1
approche 1
▁Henri 1
▁journées 1
▁QU 1
▁cible 1
▁tac 1
Office 1
▁Mél 1
ernes 1
irurg 1
▁Richard 1
▁savent 1
▁installé 1
▁Nouveau 1
▁rétab 1
▁préfère 1
▁couvert 1
▁guer 1
▁énergétique 1
▁éloi 1
/8 1
▁navigation 1
PP 1
chez 1
▁Espagne 1
▁sorties 1
tiver 1
za 1
çait 1
mique 1
TA 1
▁189 1
activités 1
aro 1
roir 1
▁parlé 1
App 1
▁modé 1
▁bateau 1
▁commandes 1
▁retourner 1
▁respectivement 1
▁EX 1
▁restaurants 1
▁automatiquement 1
▁originale 1
tenance 1
▁voter 1
▁fondée 1
assistance 1
arra 1
▁actif 1
essentiel 1
▁rup 1
▁paysage 1
▁décri 1
▁termine 1
geois 1
positions 1
▁destiné 1
▁gouvern 1
▁officiellement 1
org 1
orteur 1
xi 1
▁crédits 1
▁Obama 1
▁billet 1
▁tir 1
fense 1
oga 1
▁2005, 1
▁éché 1
▁municipalité 1
▁entière 1
▁mené 1
agées 1
CA 1
romp 1
onor 1
olo 1
▁ON 1
ondissement 1
▁internautes 1
▁routes 1
▁confirme 1
▁mécanismes 1
▁stabilité 1
onniers 1
▁vainque 1
cée 1
▁saint 1
▁espérons 1
hom 1
èvre 1
▁National 1
▁kg 1
▁Ins 1
▁Chap 1
▁rond 1
▁Po 1
ht 1
▁tenté 1
IQUE 1
▁Outre 1
▁Wal 1
▁100% 1
▁devi 1
16 1
▁Afin 1
▁directe 1
▁issus 1
exemple 1
▁deven 1
▁tox 1
▁blancs 1
intro 1
mond 1
▁CA 1
gypte 1
ita 1
▁chargée 1
▁problé 1
▁auto 1
▁vins 1
espé 1
▁said 1
èques 1
▁étage 1
▁aver 1
▁soutenu 1
▁séances 1
▁Maintenant 1
▁dessous 1
événement 1
den 1
▁description 1
▁repose 1
élève 1
Orient 1
▁équipé 1
▁déliv 1
apos 1
▁appartient 1
▁graves 1
ision 1
▁ouvrir 1
▁limitée 1
▁smart 1
▁gour 1
▁fermeture 1
▁Portug 1
▁contenant 1
▁43 1
▁Durant 1
▁collecte 1
▁proposées 1
ctes 1
▁tourne 1
yr 1
êts 1
▁Tri 1
▁engagements 1
▁ajout 1
▁hypoth 1
TIONS 1
sa 1
▁préalable 1
▁fédérale 1
▁signature 1
▁î 1
▁systématique 1
Re 1
▁candidature 1
▁douleur 1
▁discrimination 1
▁Emp 1
▁classiques 1
▁recon 1
appareil 1
▁Fi 1
▁bibliothèque 1
▁Pont 1
▁Michael 1
▁métiers 1
ITE 1
ISE 1
▁attaques 1
▁attent 1
▁déclare 1
▁collective 1
▁cinqui 1
▁maîtres 1
▁cadres 1
▁quitte 1
ctu 1
▁musulmans 1
Mais 1
▁enle 1
▁nez 1
itt 1
▁2013. 1
▁Norm 1
▁vesti 1
▁constate 1
▁marge 1
ondre 1
toine 1
▁MO 1
atie 1
▁ramen 1
▁glace 1
▁souvenirs 1
œurs 1
▁Georges 1
▁magazine 1
Merci 1
▁avenir 1
▁provinci 1
▁2016. 1
vol 1
▁Bes 1
▁présentée 1
▁pistes 1
▁présentes 1
▁franc 1
▁inéd 1
alimentation 1
▁dommage 1
▁amoureux 1
▁James 1
▁estim 1
▁portent 1
▁prête 1
▁téléph 1
▁pin 1
▁argent 1
automne 1
sias 1
quettes 1
écoute 1
▁47 1
▁liée 1
▁You 1
▁blessés 1
▁Attention 1
▁stage 1
▁rire 1
▁mâ 1
▁évaluation 1
▁250 1
▁grève 1
▁léger 1
▁SP 1
▁30. 1
lot 1
▁cotis 1
aph 1
▁auxquels 1
▁nourriture 1
▁logiciels 1
▁garçon 1
▁Rog 1
▁générales 1
▁rap 1
anda 1
▁obstac 1
▁émo 1
▁mac 1
▁instrument 1
▁Méd 1
▁enregistré 1
▁cultures 1
▁Im 1
▁Dés 1
▁ressorti 1
▁robe 1
▁douze 1
▁er 1
▁toit 1
▁entrepren 1
▁bref 1
▁that 1
ulaires 1
▁original 1
▁eut 1
grédients 1
aves 1
▁récupérer 1
▁retrait 1
▁scrutin 1
▁marketing 1
▁évidence 1
▁aient 1
▁degré 1
▁domic 1
▁exter 1
▁résoudre 1
▁énorme 1
▁peint 1
rète 1
▁pul 1
aitre 1
▁poursuite 1
▁palestin 1
▁Canadiens 1
▁pert 1
▁ralenti 1
SION 1
▁câ 1
▁adapté 1
▁régler 1
Ab 1
▁coul 1
▁fixé 1
▁cass 1
inture 1
▁Lorsqu 1
▁mascul 1
ttes 1
...). 1
▁join 1
▁7. 1
▁associés 1
oï 1
▁with 1
agissait 1
jection 1
outil 1
▁précip 1
osants 1
rières 1
▁49 1
▁rédaction 1
rlande 1
▁interpré 1
▁rappelé 1
▁remplir 1
▁différente 1
trer 1
▁comprom 1
itch 1
▁coc 1
Su 1
▁différences 1
▁alent 1
▁réjou 1
▁composée 1
peau 1
▁PE 1
ajouter 1
▁connais 1
▁brev 1
▁spati 1
▁magist 1
▁destinée 1
issements 1
▁présentent 1
▁antéri 1
truire 1
▁800 1
▁tué 1
uste 1
indépendance 1
cité 1
na 1
▁magasins 1
▁retirer 1
▁travaillent 1
▁laissant 1
▁Certaines 1
▁Vincent 1
uster 1
▁Frédéric 1
▁Hong 1
faire 1
▁commerciales 1
▁alimentaires 1
▁fier 1
AUX 1
▁défis 1
▁Tunis 1
▁conclusion 1
acie 1
▁plats 1
conque 1
CR 1
▁Dominique 1
orce 1
▁cinquième 1
▁Liv 1
▁roul 1
▁cadeau 1
ÉR 1
▁Joseph 1
▁obtient 1
▁compréhension 1
▁violences 1
▁lead 1
veiller 1
▁philosophie 1
IP 1
▁interrog 1
agon 1
mblement 1
▁commerciaux 1
▁autochtones 1
▁refusé 1
▁positif 1
▁accéder 1
▁billets 1
▁conforme 1
▁affront 1
▁repar 1
▁inclu 1
▁progressivement 1
▁Table 1
▁endroits 1
fon 1
uie 1
▁PME 1
ignon 1
▁commerces 1
▁vig 1
▁traduit 1
▁malheureusement 1
▁ME 1
▁battre 1
▁correspondant 1
alon 1
▁oise 1
▁Moh 1
okies 1
mpe 1
ebdom 1
▁accélé 1
accent 1
appréci 1
▁répert 1
▁bassin 1
éti 1
▁Guill 1
titudes 1
▁prépare 1
IF 1
▁élég 1
ebdomad 1
▁essais 1
ORM 1
▁vacc 1
▁priorités 1
▁invité 1
▁Côte 1
▁utiles 1
▁apprécié 1
▁tranquille 1
▁aliments 1
▁van 1
▁menu 1
rément 1
▁refuse 1
▁8, 1
▁histoires 1
ambiance 1
rocher 1
▁midi 1
▁fondé 1
ATI 1
▁délais 1
cides 1
▁bulle 1
▁52 1
▁établir 1
▁fasse 1
êtement 1
écart 1
▁colère 1
▁administratif 1
▁exemples 1
onnements 1
rue 1
ttawa 1
▁fun 1
▁Inform 1
ires 1
iées 1
▁intitulé 1
▁précision 1
▁épisode 1
▁chaussures 1
▁plateforme 1
lon 1
▁libération 1
iness 1
▁fine 1
▁Wh 1
cevoir 1
▁entretien 1
▁annuelle 1
▁rouges 1
humanité 1
▁Aucun 1
orientation 1
▁2011. 1
▁investisseurs 1
Saint 1
▁Recher 1
▁mariti 1
▁global 1
▁souhaitent 1
▁bains 1
▁présentés 1
▁Camp 1
▁Première 1
▁eth 1
▁civil 1
▁diss 1
ottes 1
▁ouverture 1
▁sympa 1
▁Luxemb 1
▁loisirs 1
▁vols 1
▁vingtaine 1
▁prévenir 1
▁Pan 1
ANCE 1
endie 1
tt 1
▁120 1
▁proté 1
▁ressenti 1
▁défend 1
▁garçons 1
▁options 1
▁plomb 1
▁Bonne 1
▁Cha 1
▁lin 1
▁puissant 1
▁Mai 1
reuse 1
▁Toulouse 1
▁fasc 1
▁planification 1
▁Bert 1
▁188 1
▁conjoin 1
ffe 1
▁éb 1
▁(199 1
sim 1
▁déposé 1
33 1
▁provisoire 1
▁disait 1
▁2004, 1
▁économies 1
▁Situ 1
▁Inst 1
▁regarde 1
7) 1
aura 1
▁richesse 1
MS 1
▁tissu 1
▁relatifs 1
▁tres 1
▁évident 1
▁domicili 1
oureuse 1
▁ouvrages 1
▁plant 1
▁Bru 1
▁autonome 1
any 1
êque 1
▁descend 1
▁Radi 1
▁couche 1
▁chirurg 1
▁disparition 1
▁profession 1
▁permanence 1
▁impact 1
▁regroupe 1
partement 1
▁Tribunal 1
entreprises 1
ORT 1
asses 1
▁élevés 1
▁intervention 1
▁préciser 1
▁Sav 1
mosphère 1
▁régulière 1
▁maman 1
▁encad 1
▁MON 1
▁pertes 1
▁Max 1
▁0% 1
▁répartition 1
▁scènes 1
▁bénéfice 1
▁Jeu 1
▁fenêtre 1
ator 1
▁Marine 1
érapeu 1
éricains 1
▁Esp 1
▁Exp 1
▁associé 1
▁Encore 1
Louis 1
ouill 1
▁Reg 1
ides 1
▁Région 1
MB 1
▁gris 1
ductions 1
▁Chez 1
VD 1
▁crime 1
▁financer 1
▁combats 1
▁motifs 1
▁vieille 1
inq 1
zaine 1
oile 1
ize 1
▁capitaine 1
▁accepter 1
hib 1
▁incar 1
▁efficaces 1
200 1
▁Rapport 1
▁bri 1
▁voyages 1
95 1
▁médicale 1
▁arts 1
▁cur 1
▁alg 1
atrices 1
avion 1
èvres 1
▁ambiance 1
inéa 1
acifique 1
▁poissons 1
rimés 1
▁apprend 1
▁exercice 1
déqu 1
▁soud 1
▁quelles 1
cesseur 1
▁Sil 1
ION 1
▁rembours 1
▁nations 1
extrême 1
▁consoli 1
▁conservation 1
elli 1
▁superfici 1
▁chantier 1
tionnaires 1
neurs 1
▁présidente 1
appelle 1
▁passent 1
ical 1
▁vague 1
▁moul 1
▁arabe 1
▁Festival 1
▁pav 1
infra 1
ènement 1
▁reconnaît 1
▁industriels 1
animation 1
▁syndicat 1
▁mène 1
▁discuter 1
▁adéqu 1
▁recouv 1
▁clic 1
▁réussir 1
▁initiative 1
▁Rem 1
▁quitté 1
▁Emmanuel 1
▁bris 1
▁connus 1
▁musiciens 1
▁vues 1
LA 1
▁Pub 1
▁consci 1
ortés 1
▁traitements 1
offrir 1
oiles 1
aventure 1
▁accueilli 1
▁voc 1
▁voulais 1
▁personnelles 1
▁Maurice 1
▁geste 1
▁Aucune 1
iger 1
▁savez 1
▁agent 1
▁foule 1
enue 1
èses 1
▁personnalité 1
ave 1
▁récente 1
▁positions 1
▁Constitution 1
oriste 1
lète 1
▁Mun 1
ardins 1
▁juridiques 1
▁réformes 1
▁sympathique 1
▁tension 1
▁causes 1
▁Olivier 1
▁souverain 1
Église 1
▁Nice 1
▁vendu 1
agnement 1
▁japonais 1
▁saisons 1
▁élevée 1
CES 1
endes 1
▁achats 1
ologues 1
ILLE 1
▁secondaire 1
âme 1
▁intégré 1
▁Bat 1
▁tentative 1
utilisateur 1
▁décoration 1
érapie 1
▁perturb 1
▁publiée 1
▁ur 1
▁sportif 1
▁définitivement 1
▁italien 1
▁Ve 1
▁quinze 1
▁Thier 1
▁Berlin 1
▁offrent 1
▁transmission 1
▁Ray 1
établir 1
▁périodes 1
▁FN 1
-8 1
▁Stre 1
▁prud 1
▁basé 1
hist 1
▁1998 1
▁militants 1
ommages 1
rè 1
▁venait 1
my 1
▁générations 1
▁Musée 1
organisme 1
▁fum 1
▁pier 1
aure 1
▁quasiment 1
▁traités 1
ado 1
▁2010. 1
▁stress 1
▁interro 1
▁My 1
▁concentration 1
érables 1
▁oublié 1
ieuses 1
▁gardien 1
▁paroles 1
guer 1
▁perspectives 1
riez 1
▁Syl 1
oni 1
▁traditionnelle 1
▁Christophe 1
▁expédi 1
▁Genève 1
▁cuire 1
▁ressort 1
▁finit 1
▁graphique 1
session 1
▁Stéphane 1
▁guère 1
▁Mod 1
iliation 1
▁communautaires 1
tenues 1
HE 1
▁tom 1
UD 1
▁Toujours 1
▁tours 1
quants 1
▁Pol 1
▁signes 1
excell 1
ulteurs 1
▁arrêt 1
influence 1
▁viens 1
▁simpli 1
▁terminer 1
▁constitué 1
erine 1
ALE 1
▁naturellement 1
21 1
▁Francis 1
▁futurs 1
▁civils 1
red 1
▁palais 1
liers 1
▁Eric 1
/4 1
▁Bu 1
atures 1
▁assurance 1
▁salaires 1
installer 1
van 1
▁poisson 1
ulté 1
▁autor 1
▁convaincre 1
had 1
inés 1
▁prime 1
orld 1
▁sondage 1
▁excellente 1
▁quête 1
onnier 1
erger 1
▁jugé 1
▁disparu 1
▁pouvaient 1
▁Parc 1
▁adolesc 1
▁option 1
▁fruit 1
▁Lin 1
opinion 1
arrive 1
▁alentours 1
▁contenus 1
lèvement 1
▁Lim 1
▁décider 1
aliers 1
▁anciennes 1
ny 1
low 1
ago 1
oter 1
▁Chac 1
▁(+ 1
▁Vall 1
meuble 1
▁dessins 1
▁Peti 1
comme 1
▁éloign 1
▁accueille 1
▁professeurs 1
agnies 1
▁dépens 1
▁laboratoire 1
▁Néanmoins 1
▁proposons 1
orge 1
▁International 1
▁Gir 1
▁contrôler 1
▁comé 1
▁Belle 1
▁Luxembourg 1
▁contrairement 1
intern 1
aies 1
▁courses 1
▁susceptibles 1
%) 1
▁gê 1
▁irré 1
▁législatives 1
sace 1
tiles 1
▁pourcent 1
▁rentrer 1
▁surf 1
idées 1
poli 1
▁187 1
▁recrutement 1
▁transformer 1
▁criti 1
▁Ble 1
▁bét 1
▁Envir 1
isés 1
▁Somm 1
▁ore 1
▁monnaie 1
▁feront 1
▁majeure 1
▁troubles 1
housias 1
▁québécois 1
): 1
▁convivi 1
▁plastique 1
▁fur 1
▁Inf 1
▁revoir 1
▁comparaison 1
▁toil 1
▁fameux 1
col 1
▁soutient 1
▁promis 1
▁éclai 1
▁gas 1
▁arbres 1
▁hér 1
▁Merc 1
ffre 1
chestre 1
▁extraordinaire 1
▁Sta 1
▁facteur 1
charge 1
îtes 1
▁nettement 1
euters 1
▁deviennent 1
erse 1
▁physiques 1
▁recev 1
▁devaient 1
émique 1
▁(...) 1
▁délib 1
▁transparence 1
▁dirig 1
ouvrage 1
hin 1
0.000 1
▁Lég 1
ake 1
ghan 1
▁Tom 1
▁plafond 1
▁intérieure 1
▁Lang 1
▁Flor 1
▁Fam 1
ouf 1
▁pompiers 1
▁rupture 1
24 1
▁bag 1
mise 1
Aut 1
mité 1
▁sollic 1
▁administrative 1
▁jusque 1
inves 1
▁réalisateur 1
▁Pic 1
-7 1
▁SC 1
▁bor 1
▁relever 1
▁considérée 1
▁10, 1
adaptation 1
atisation 1
▁subi 1
▁mécanisme 1
▁mobilis 1
▁empêcher 1
▁CG 1
▁monétaire 1
▁mix 1
veloppement 1
▁profite 1
▁destinés 1
Des 1
▁bouton 1
▁discipline 1
chette 1
▁Sol 1
anément 1
nez 1
▁gel 1
inscription 1
▁perpé 1
iment 1
outh 1
▁morale 1
▁Article 1
▁forts 1
▁Donald 1
▁Directeur 1
▁Etat 1
entend 1
▁culturelles 1
▁chronique 1
▁communications 1
▁tire 1
▁sauveg 1
▁56 1
▁aides 1
▁plages 1
▁médical 1
▁refro 1
▁insuffis 1
▁May 1
▁inuti 1
Angleterre 1
▁licenci 1
▁flam 1
harm 1
▁plain 1
▁perfection 1
▁accessoires 1
lack 1
▁Portugal 1
▁Tél 1
▁Albert 1
▁basée 1
▁quels 1
▁Gaz 1
▁compagnies 1
▁restera 1
▁considérer 1
jà 1
usé 1
▁géographique 1
▁Ros 1
▁blessé 1
illot 1
▁perç 1
acqu 1
▁Certes 1
tible 1
▁star 1
▁ges 1
endront 1
▁migrants 1
arrêter 1
ercices 1
▁tendances 1
▁catholique 1
enregistrement 1
▁Gren 1
▁règne 1
▁chaude 1
▁Jam 1
orant 1
▁ence 1
▁titulaire 1
▁centaine 1
ensive 1
itz 1
▁Pologne 1
▁soix 1
François 1
▁OU 1
envoyer 1
▁indemn 1
▁poursuivi 1
▁phrase 1
▁sculp 1
▁programmation 1
▁sanctions 1
▁connaissent 1
ignant 1
▁matches 1
▁sable 1
▁aidera 1
▁régionaux 1
▁leaders 1
▁Amérique 1
▁cache 1
▁disant 1
▁musicale 1
▁2003, 1
The 1
▁incap 1
ATIONS 1
wan 1
▁budgétaire 1
▁similaires 1
▁électeurs 1
Voir 1
▁déploi 1
DA 1
oivent 1
▁limité 1
oiff 1
▁saisir 1
▁généraux 1
hip 1
▁développe 1
▁industriel 1
▁révolu 1
▁magn 1
▁bénéficie 1
▁prochains 1
UX 1
▁54 1
▁produis 1
sière 1
▁Sm 1
▁réservé 1
▁2002, 1
▁standard 1
▁pollution 1
▁ouvertes 1
ject 1
▁9, 1
▁solo 1
▁cookies 1
▁déficit 1
gre 1
attente 1
▁clin 1
▁crimes 1
▁spectateurs 1
ene 1
tige 1
▁environs 1
▁sanction 1
▁chimiques 1
▁Corée 1
orés 1
▁corruption 1
▁Hu 1
▁francs 1
▁Fe 1
▁acheté 1
▁2017, 1
▁Résult 1
IRE 1
▁liquide 1
▁spécialement 1
▁rede 1
obligation 1
5) 1
▁terrible 1
▁appliquer 1
applique 1
▁îles 1
▁mit 1
abri 1
▁automobile 1
▁forêts 1
▁contribué 1
▁future 1
dict 1
AGES 1
▁juges 1
vence 1
estres 1
▁tester 1
▁congé 1
▁RÉ 1
▁parlementaire 1
VA 1
▁évoluer 1
▁placer 1
isses 1
▁traces 1
▁Patri 1
▁mobilité 1
▁pierres 1
agner 1
.0 1
▁éditions 1
▁trouvait 1
▁hu 1
▁clientèle 1
▁). 1
TEUR 1
uns 1
▁attendu 1
▁Journal 1
aste 1
▁Art 1
rables 1
▁bancaire 1
▁Manuel 1
▁Réf 1
▁ronde 1
▁norme 1
entraînement 1
▁1000 1
▁Hy 1
▁indépendante 1
▁Pra 1
sier 1
▁Ger 1
▁permanent 1
▁disposer 1
stes 1
ritan 1
▁frau 1
▁jury 1
▁éti 1
ao 1
▁fuite 1
▁2001, 1
▁Comb 1
▁américaines 1
dule 1
angle 1
▁Malheureusement 1
associ 1
Es 1
▁PIB 1
▁immense 1
ctur 1
dex 1
23 1
▁chanteur 1
serie 1
▁déroule 1
enz 1
▁tiré 1
▁administratives 1
deurs 1
▁directrice 1
▁rarement 1
Se 1
▁stric 1
▁Département 1
▁Wall 1
euve 1
▁sacri 1
▁déposer 1
▁contraintes 1
▁hauts 1
▁Faire 1
échapp 1
▁arme 1
▁confid 1
FC 1
▁fournisseurs 1
▁passagers 1
▁baign 1
▁contributions 1
▁Faites 1
▁repé 1
▁om 1
▁mons 1
UM 1
▁erreurs 1
▁milieux 1
▁claire 1
ish 1
▁tableaux 1
als 1
oliques 1
lera 1
▁Red 1
▁observations 1
▁balle 1
orizon 1
▁fraîche 1
▁sombre 1
▁propriétés 1
▁Guillaume 1
▁proposent 1
▁âgé 1
▁cerveau 1
▁manche 1
dite 1
ota 1
aga 1
▁rapproche 1
ribution 1
▁aventure 1
ico 1
▁comport 1
▁chemins 1
▁2017. 1
▁pun 1
▁suivent 1
▁conférences 1
▁Ess 1
▁religieuse 1
▁privées 1
▁85 1
▁remplacement 1
▁motif 1
▁186 1
▁costu 1
lah 1
▁inscrits 1
▁Gau 1
▁chauffage 1
▁agir 1
▁dat 1
▁Mou 1
ueur 1
▁paysages 1
▁trent 1
▁Suède 1
ativement 1
▁rémunération 1
uf 1
▁ballon 1
▁identi 1
▁connexion 1
istéri 1
lait 1
▁41 1
reuves 1
▁Défense 1
engage 1
▁auth 1
▁vérification 1
▁préserver 1
itôt 1
▁réserves 1
tan 1
dont 1
▁sév 1
▁Bretagne 1
▁soule 1
▁évoque 1
▁nécessite 1
▁ressemble 1
fond 1
lets 1
▁espère 1
▁Dam 1
▁versions 1
▁sports 1
▁touché 1
ICE 1
ails 1
cia 1
Paul 1
▁seules 1
▁dorm 1
▁diplôme 1
▁inscrire 1
▁sexuelle 1
▁détente 1
▁Trav 1
adapter 1
▁lever 1
▁libres 1
FP 1
▁Pok 1
▁destruction 1
▁enquê 1
pers 1
▁recommandé 1
▁batterie 1
▁continuent 1
▁inaug 1
▁fondateur 1
seu 1
▁district 1
▁détention 1
▁Mosc 1
▁explic 1
▁voient 1
onto 1
▁bijou 1
DG 1
▁interventions 1
ettez 1
▁destinées 1
RC 1
▁Stu 1
▁accusé 1
▁cous 1
allen 1
islam 1
idé 1
▁Pascal 1
▁dates 1
▁plaque 1
ouc 1
▁universitaire 1
▁naturels 1
▁look 1
▁symbole 1
tistes 1
▁pic 1
▁CC 1
▁islamique 1
▁Note 1
▁dimensions 1
▁promet 1
▁Net 1
▁quotidienne 1
▁morceau 1
hétique 1
▁ax 1
▁(10 1
glom 1
▁terrains 1
▁satisfaire 1
▁Ti 1
▁chevaux 1
▁subs 1
▁menées 1
▁souffle 1
page 1
▁douceur 1
▁traditionnel 1
▁musulman 1
▁fiscale 1
acquisition 1
▁permanente 1
8) 1
▁électriques 1
▁remet 1
22 1
ritanniques 1
▁diagnostic 1
▁em 1
▁Vir 1
▁West 1
OMM 1
encer 1
▁AL 1
▁Cli 1
▁(« 1
▁lancée 1
ive 1
▁(0 1
▁randonnée 1
sible 1
▁Rel 1
▁Marcel 1
▁tromp 1
▁envoyer 1
▁Fig 1
▁recense 1
sive 1
▁tort 1
▁électorale 1
▁audi 1
aband 1
▁Date 1
iliers 1
▁maternelle 1
▁Thierry 1
▁bron 1
utée 1
▁Sui 1
▁respi 1
▁Général 1
▁her 1
▁Lui 1
▁couper 1
oyers 1
▁Conne 1
▁Pé 1
▁sémin 1
▁jouent 1
dies 1
▁George 1
▁infir 1
▁raff 1
▁Sand 1
▁dépasser 1
ualité 1
▁Men 1
▁virus 1
▁mobilisation 1
▁hôtes 1
▁fallu 1
▁artiste 1
▁espagnol 1
ora 1
▁organes 1
ocats 1
▁spéciales 1
outez 1
▁armées 1
sez 1
▁Vie 1
▁Accueil 1
▁cinquante 1
/3 1
▁essayé 1
▁Sénat 1
▁liaison 1
▁NE 1
entine 1
Acc 1
▁lente 1
ennies 1
▁équilib 1
9) 1
▁monument 1
ssant 1
▁Lar 1
ançon 1
▁compléter 1
peur 1
▁2008. 1
▁yoga 1
▁vainqueur 1
▁copie 1
▁del 1
▁évaluer 1
▁ingrédients 1
▁64 1
▁décol 1
usine 1
▁capables 1
▁voulons 1
▁serveur 1
alition 1
diens 1
▁infrastructures 1
▁fes 1
équipement 1
▁épar 1
▁montagnes 1
acheter 1
vén 1
▁parallèle 1
▁stockage 1
▁nutri 1
▁forfait 1
armer 1
▁(1) 1
▁procureur 1
7% 1
ressent 1
UT 1
▁Jan 1
▁présentant 1
▁complexes 1
▁écologique 1
▁envisage 1
original 1
▁préju 1
▁références 1
PC 1
▁Mexique 1
▁doigts 1
▁vuln 1
▁Tre 1
▁IS 1
▁idéale 1
▁unité 1
▁décennies 1
▁Front 1
hérents 1
non 1
▁sauce 1
tisé 1
▁pilotes 1
▁label 1
▁Gil 1
illy 1
gène 1
▁remporte 1
▁réfléchir 1
▁Gh 1
Emp 1
▁COMP 1
▁inférieur 1
institu 1
▁volet 1
▁Cos 1
▁Seigneur 1
▁exclusivement 1
▁chiens 1
▁pape 1
oriser 1
ativité 1
▁Sinon 1
▁analyses 1
▁contest 1
rosoft 1
ITÉ 1
▁modernes 1
▁contro 1
▁appelée 1
apé 1
manie 1
cht 1
(0 1
ébergement 1
▁identité 1
ouvent 1
▁raf 1
▁1990 1
▁Heure 1
chons 1
▁gout 1
kraine 1
ingue 1
▁Ven 1
▁remboursement 1
rot 1
▁rendent 1
▁écrite 1
sertion 1
épreuve 1
▁campagnes 1
▁Dub 1
▁toile 1
▁01 1
▁populaires 1
▁sép 1
auto 1
▁parquet 1
immigration 1
appli 1
▁duo 1
onnage 1
▁dépasse 1
▁rat 1
▁personnalités 1
▁posé 1
ussitôt 1
▁recevrez 1
▁supprimer 1
▁feuille 1
▁protest 1
▁enquêtes 1
entraîneur 1
▁réputation 1
▁03.8 1
▁épous 1
▁2007. 1
▁climatique 1
▁effort 1
▁corp 1
▁cla 1
INS 1
▁apprécie 1
itons 1
▁Nap 1
▁linguis 1
▁équilibre 1
▁tenant 1
▁reconnaiss 1
▁suivie 1
haus 1
▁provinces 1
▁nécessairement 1
▁transpor 1
▁universités 1
OD 1
▁prétend 1
▁affiche 1
▁Ci 1
Claude 1
▁investissement 1
▁fe 1
▁Ev 1
▁luxe 1
▁Soins 1
ègre 1
comp 1
▁géant 1
▁hal 1
▁réalisées 1
▁rej 1
▁cart 1
▁dommages 1
▁accessibles 1
▁convo 1
Oui 1
effectu 1
ortée 1
▁Arn 1
▁royaume 1
▁convers 1
▁avocat 1
3% 1
▁positive 1
▁pause 1
▁influence 1
▁augmente 1
▁fusion 1
ints 1
onnance 1
▁techni 1
archie 1
oui 1
▁totalité 1
export 1
▁amende 1
▁conseillers 1
pection 1
outs 1
▁Pap 1
arder 1
▁normale 1
omét 1
▁audio 1
▁XIX 1
▁vocation 1
▁Mel 1
▁oubli 1
▁voile 1
▁états 1
▁avent 1
▁correctement 1
▁remarque 1
▁valoir 1
▁gouvernance 1
00. 1
▁unif 1
oble 1
▁témoins 1
▁Gro 1
endrait 1
▁poche 1
▁guid 1
ster 1
Cette 1
texte 1
▁proposée 1
obe 1
▁constituer 1
▁pourcentage 1
▁terroristes 1
▁épisodes 1
▁organisme 1
▁Cop 1
▁ath 1
▁Madrid 1
▁remplacé 1
▁rempli 1
duisant 1
▁gre 1
▁assister 1
Iran 1
▁monte 1
▁prévoir 1
▁débuts 1
structure 1
▁vag 1
inscrire 1
ARD 1
érées 1
▁sympt 1
▁moteurs 1
.» 1
▁internes 1
architecture 1
▁plas 1
▁2009. 1
▁offrant 1
endredi 1
▁casser 1
▁organiser 1
▁révélé 1
▁bénévoles 1
interro 1
▁Peter 1
▁Ministre 1
▁dirigé 1
▁déplacer 1
lisme 1
▁prévus 1
▁acteur 1
duites 1
▁branche 1
▁Toronto 1
▁vieill 1
▁dite 1
▁8. 1
ova 1
▁arb 1
▁Gilles 1
▁passés 1
inage 1
lez 1
▁relie 1
raires 1
▁René 1
▁58 1
▁tabac 1
▁Place 1
▁poudre 1
▁vété 1
▁chapelle 1
▁Mur 1
ouch 1
itage 1
▁Wil 1
▁révision 1
▁FA 1
appliquer 1
▁successi 1
▁Aj 1
▁City 1
▁démarches 1
▁constitution 1
▁Moscou 1
▁coordonnées 1
onnais 1
▁Radio 1
itaine 1
▁DVD 1
▁opportun 1
▁courrier 1
▁hiér 1
▁consent 1
hommes 1
▁utilisent 1
▁formé 1
▁épr 1
▁ménages 1
-18 1
▁appui 1
AND 1
aco 1
▁frappe 1
▁rôles 1
Intern 1
▁1997 1
▁mange 1
▁comprennent 1
▁empê 1
▁lourd 1
fa 1
▁normalement 1
▁Colombie 1
autorisation 1
▁arrêter 1
Algérie 1
roï 1
ebdomadaire 1
▁poul 1
▁publiés 1
▁édi 1
ustrali 1
▁aqu 1
▁journaux 1
liance 1
invent 1
▁oiseaux 1
▁Montpel 1
▁exceptionnel 1
Car 1
▁Point 1
▁voudrais 1
▁corri 1
▁traditionnels 1
▁ger 1
▁précieux 1
▁amie 1
▁armée 1
▁transmettre 1
▁touristes 1
ématique 1
▁rapporte 1
▁Surtout 1
▁Afficher 1
ench 1
▁pousser 1
CHE 1
prême 1
eck 1
liques 1
laration 1
▁resté 1
▁Mondi 1
istiques 1
▁représenter 1
▁coute 1
ymn 1
▁citoyen 1
▁Blanc 1
▁occupe 1
▁assist 1
▁Venez 1
améric 1
▁cercle 1
essai 1
▁publications 1
▁taxes 1
▁citer 1
▁farine 1
étend 1
▁agences 1
sante 1
▁preuves 1
▁crédi 1
▁mourir 1
▁venant 1
▁contribue 1
▁provenance 1
▁Part 1
habit 1
▁nomination 1
▁complémentaires 1
Jean 1
▁protocole 1
▁témoignage 1
organiser 1
ases 1
▁médicament 1
▁âgées 1
inn 1
▁technologique 1
onse 1
▁négociation 1
vies 1
hône 1
▁publie 1
instruction 1
▁cord 1
gen 1
▁1999, 1
▁exceptionnelle 1
▁99 1
▁Denis 1
▁Roger 1
▁concerts 1
▁étions 1
▁Fondation 1
▁tirs 1
deux 1
▁manquer 1
▁Père 1
▁auxquelles 1
▁due 1
èches 1
▁dispositifs 1
▁Microsoft 1
▁commissaire 1
34 1
▁bre 1
▁Sant 1
inscrit 1
▁départements 1
▁assis 1
▁sièges 1
▁trajet 1
▁incroyable 1
los 1
▁Bourse 1
▁Prom 1
▁incomp 1
▁apporté 1
6% 1
▁SER 1
▁suisse 1
cidence 1
▁nucléaires 1
▁Hug 1
▁mang 1
aus 1
▁étoiles 1
▁remarquable 1
▁Loire 1
▁adaptés 1
icale 1
lesse 1
▁Dar 1
▁pommes 1
emplois 1
▁deb 1
▁installation 1
neau 1
envoi 1
▁Barb 1
▁employé 1
▁185 1
▁QUE 1
▁confié 1
arque 1
▁montage 1
▁combatt 1
▁SO 1
▁chaleureux 1
mét 1
liser 1
▁consultations 1
▁Lis 1
Asie 1
▁substances 1
▁municipale 1
▁accordé 1
mentaire 1
▁fermé 1
▁Guide 1
▁déplacements 1
▁tiendra 1
▁diminution 1
▁coach 1
vard 1
▁cho 1
trice 1
▁communs 1
▁fiscal 1
▁implique 1
▁deg 1
▁clo 1
▁Font 1
▁os 1
avocat 1
ortées 1
▁documentaire 1
▁manifestants 1
▁inscriptions 1
▁Projet 1
▁sûrement 1
▁sinc 1
▁longs 1
▁Diff 1
bri 1
▁fidèles 1
ourner 1
▁poésie 1
▁éventuellement 1
▁Lou 1
▁Mise 1
mands 1
▁producteur 1
▁âgés 1
▁laï 1
▁abus 1
▁paramètres 1
▁mineurs 1
▁adaptée 1
exprimer 1
▁gras 1
▁Fillon 1
▁pensent 1
active 1
▁duquel 1
▁commencent 1
▁Id 1
▁incontourn 1
▁Bois 1
▁Py 1
▁épi 1
▁Gé 1
▁épreuves 1
▁mécanique 1
▁permettront 1
▁Black 1
▁signer 1
aspect 1
48 1
▁détour 1
▁Gestion 1
▁réservation 1
encontre 1
▁dépit 1
▁prévisions 1
31 1
ôture 1
▁solaire 1
enfance 1
▁TTC 1
tinéra 1
▁surpren 1
▁spécialisée 1
pir 1
▁installer 1
▁conducteur 1
espèce 1
▁laissez 1
▁mira 1
jon 1
▁littéraire 1
yer 1
issante 1
mil 1
▁spectacles 1
rix 1
▁consens 1
▁semblait 1
▁profondément 1
▁accompagner 1
ato 1
inverse 1
érateur 1
ensez 1
▁path 1
▁humanitaire 1
▁culte 1
▁veiller 1
▁ner 1
Ob 1
ount 1
▁Nantes 1
▁Ang 1
▁souhaité 1
▁cruci 1
▁combattre 1
▁évoqué 1
occuper 1
▁coté 1
▁Samedi 1
chait 1
▁pratiquement 1
▁SNC 1
▁essai 1
▁sté 1
annexe 1
rovi 1
▁canadiens 1
▁Tar 1
▁immobilier 1
▁06 1
▁Pou 1
▁cadeaux 1
oria 1
▁répand 1
28 1
▁contrôles 1
▁tiennent 1
▁flex 1
▁dents 1
▁trentaine 1
▁précédentes 1
âts 1
▁jambes 1
▁secrets 1
▁avion 1
▁effectifs 1
▁Dj 1
▁Justice 1
TM 1
terr 1
▁fidèle 1
▁700 1
▁navires 1
essionn 1
▁Mah 1
riment 1
bal 1
▁bénéfices 1
▁secrétariat 1
▁transmis 1
▁ferait 1
pa 1
ho 1
▁régimes 1
EUR 1
▁canadiennes 1
▁détaill 1
Mich 1
▁actionn 1
endum 1
trée 1
enj 1
▁HD 1
▁dites 1
▁Congrès 1
▁culturels 1
RO 1
▁féminin 1
zi 1
▁recyc 1
▁grosses 1
▁Top 1
▁animal 1
▁témoignages 1
▁variété 1
▁lou 1
anglais 1
▁stab 1
▁Autres 1
▁impôts 1
▁sportifs 1
▁précédents 1
▁1995 1
▁artif 1
▁RES 1
▁blessures 1
▁étrangère 1
▁15, 1
▁DANS 1
ribuer 1
▁urbaine 1
phes 1
▁garanties 1
▁suppression 1
agerie 1
▁certificat 1
▁Pet 1
adé 1
euro 1
▁familial 1
▁horaires 1
▁champions 1
▁cig 1
▁malade 1
▁CM 1
▁57 1
▁profité 1
▁hospital 1
ba 1
▁diversi 1
▁réactions 1
▁subventions 1
-9 1
▁relais 1
▁Mot 1
-10 1
▁CL 1
ingén 1
▁(2) 1
nière 1
umeurs 1
èvement 1
assent 1
▁automob 1
▁posséd 1
▁mystéri 1
▁Simon 1
▁lot 1
▁quarante 1
▁médaille 1
▁justifier 1
▁relevé 1
▁navire 1
▁écouter 1
▁den 1
▁aimer 1
▁peintre 1
oline 1
▁Star 1
rateur 1
▁was 1
▁Madame 1
▁seuil 1
▁PAS 1
Char 1
humour 1
Bretagne 1
▁Ram 1
pre 1
▁agence 1
/6 1
▁confirmer 1
▁Demande 1
ited 1
▁surpris 1
▁battu 1
▁malades 1
aisseur 1
▁demandent 1
▁exemplaires 1
▁intervenir 1
aimerais 1
▁menaces 1
▁ceinture 1
▁sortes 1
▁TVA 1
▁mesurer 1
▁Jon 1
▁modifié 1
▁All 1
▁réchauff 1
visible 1
▁remarquer 1
Eglise 1
▁So 1
▁Nom 1
▁cle 1
29. 1
▁uni 1
rimée 1
▁sommeil 1
▁Lille 1
▁enfance 1
▁requis 1
▁dédié 1
aurer 1
▁symbolique 1
2% 1
▁lits 1
▁exper 1
▁interview 1
voie 1
▁approfon 1
▁gré 1
▁stratégiques 1
individu 1
▁Pau 1
▁rétro 1
▁actuels 1
▁Mu 1
▁recue 1
▁cliquez 1
BA 1
▁achat 1
Ne 1
interprétation 1
▁conseille 1
opie 1
▁88 1
hérence 1
▁financ 1
▁domes 1
engager 1
abelle 1
▁Déjà 1
▁ressembl 1
▁périph 1
▁arrivent 1
▁Eff 1
▁Syn 1
▁10. 1
▁flui 1
▁urbain 1
▁stable 1
Homme 1
posez 1
▁détec 1
▁USA 1
▁actuelles 1
▁carbone 1
▁tax 1
▁hyper 1
nation 1
ford 1
▁révis 1
▁Nath 1
duisent 1
▁Dét 1
▁adopter 1
▁statistique 1
▁prince 1
ormément 1
▁apparaître 1
ombres 1
anisme 1
▁sœur 1
▁appartenant 1
▁meme 1
▁publier 1
yle 1
formes 1
▁entam 1
▁absent 1
▁échantill 1
▁Vendredi 1
▁Tch 1
▁qualifié 1
▁Championn 1
▁existent 1
▁situés 1
▁03 1
▁formulaire 1
▁présentées 1
▁pensez 1
▁UNE 1
▁Laur 1
▁it 1
▁ponc 1
▁compose 1
▁restri 1
▁restre 1
▁clôture 1
explique 1
▁messe 1
▁pousse 1
▁appels 1
▁pédagogique 1
ela 1
▁élève 1
▁révol 1
▁sportive 1
▁témoin 1
ecture 1
▁vivement 1
▁1996 1
▁préoccupations 1
▁probable 1
attendre 1
▁ic 1
çants 1
▁constante 1
euillez 1
▁consacrée 1
▁riz 1
▁Mark 1
▁numériques 1
aisses 1
▁Catherine 1
▁remplis 1
▁moral 1
sis 1
▁secondaires 1
▁Ara 1
▁résist 1
▁participent 1
1% 1
▁génie 1
Isra 1
ghanistan 1
extra 1
▁tapis 1
celon 1
lymp 1
▁régul 1
km 1
▁Déb 1
▁pare 1
▁verra 1
▁occupé 1
▁électroniques 1
han 1
▁myst 1
ding 1
▁Mali 1
▁volontaire 1
▁originaire 1
utes 1
indice 1
▁prévoy 1
▁souligner 1
▁Réunion 1
▁Royal 1
▁JE 1
reuses 1
▁fondamentaux 1
▁croix 1
END 1
▁obligation 1
▁suspension 1
▁défenseur 1
▁dict 1
êle 1
alerte 1
otation 1
▁conclure 1
▁détermination 1
▁atteinte 1
▁artisan 1
▁majoritaire 1
ombe 1
▁libertés 1
▁victoires 1
▁coiff 1
▁Techn 1
▁attentats 1
▁marquer 1
▁noy 1
ommé 1
autor 1
▁dî 1
experts 1
▁cime 1
▁faisaient 1
mission 1
rètement 1
ugby 1
▁flu 1
▁prendra 1
▁écar 1
wood 1
épar 1
▁massif 1
▁proportion 1
sses 1
▁Prot 1
illa 1
ulg 1
▁stations 1
fiant 1
▁oeuvres 1
▁maximale 1
▁chrétiens 1
▁parvient 1
▁Poi 1
▁troupe 1
▁indépendants 1
▁êtres 1
▁adoptée 1
▁ratta 1
▁rêves 1
▁canal 1
▁2018 1
▁Quatre 1
▁Suite 1
▁Nombre 1
▁extérieure 1
ompe 1
assemblée 1
▁couvrir 1
▁retenu 1
▁hect 1
▁Ques 1
▁Seul 1
▁touristique 1
▁(30 1
▁exprimé 1
▁tch 1
▁cardi 1
▁intégrer 1
▁Hab 1
aissé 1
▁comportements 1
▁verser 1
▁sensation 1
utilise 1
▁pension 1
▁drogue 1
▁italienne 1
▁Bruno 1
▁2000. 1
▁épreuve 1
▁piano 1
▁Dimanche 1
▁ministères 1
▁spécialisé 1
uge 1
▁Univers 1
▁énormément 1
▁télécharger 1
▁sentiments 1
▁similaire 1
▁Antoine 1
ariste 1
▁Street 1
▁hydro 1
▁Montpellier 1
▁pant 1
▁créations 1
▁fournis 1
▁prote 1
▁froide 1
▁exercices 1
▁rénovation 1
▁préparé 1
pol 1
▁mec 1
▁reine 1
▁indicateurs 1
▁ennemis 1
▁ouverts 1
▁étudiant 1
cy 1
ossibilité 1
otage 1
kel 1
26 1
▁Réser 1
▁fonde 1
▁marcher 1
▁attendent 1
lerie 1
mère 1
▁envah 1
▁00 1
emplacement 1
TIF 1
ordi 1
ariats 1
▁Sw 1
▁aussitôt 1
▁époux 1
▁Los 1
36 1
▁mutu 1
▁Bé 1
▁suprême 1
oulée 1
▁informé 1
UMP 1
▁talents 1
▁gla 1
autonomie 1
▁spaci 1
▁Mis 1
/7 1
▁autorisé 1
▁qualification 1
▁fantas 1
▁suspect 1
▁coopéra 1
tén 1
▁retrouvent 1
accident 1
▁dégâts 1
orel 1
▁heur 1
▁dépl 1
▁facture 1
▁émission 1
▁69 1
▁diminuer 1
fiée 1
ceau 1
▁sexy 1
▁abst 1
▁Chacun 1
chage 1
▁Aub 1
▁chaînes 1
▁facilité 1
▁observer 1
exam 1
▁clinique 1
▁%. 1
▁SU 1
cade 1
lises 1
▁essentielle 1
▁noirs 1
▁courants 1
oît 1
▁rab 1
arrête 1
▁payé 1
▁adversaire 1
▁officielles 1
▁Présentation 1
organ 1
▁tiens 1
▁95 1
▁congrès 1
▁dil 1
Ontario 1
▁arbit 1
▁figurent 1
27 1
▁thèse 1
itié 1
▁drame 1
OB 1
▁classé 1
âteaux 1
lateur 1
▁fromage 1
▁inn 1
▁conformité 1
ccident 1
▁anglaise 1
▁réunis 1
▁église 1
▁sensibles 1
▁cliquant 1
▁correction 1
MC 1
▁savons 1
▁tables 1
hôtes 1
▁guitare 1
▁66 1
▁mail 1
din 1
▁émerg 1
antaine 1
quera 1
▁Pensez 1
▁Déclaration 1
ENCE 1
▁chang 1
▁Commander 1
▁applicables 1
rairement 1
▁Page 1
vants 1
▁comprenant 1
▁Sénégal 1
▁nettoyage 1
▁Andre 1
▁synthèse 1
▁portrait 1
▁04 1
▁gars 1
▁garage 1
▁Cre 1
▁Tim 1
▁survie 1
▁massac 1
▁souris 1
veil 1
▁FE 1
▁soupç 1
▁particulières 1
▁convaincu 1
▁Rap 1
▁boire 1
▁Julien 1
reurs 1
▁spéciaux 1
▁parlent 1
▁12, 1
▁Barcelon 1
DS 1
visionnement 1
▁fréquence 1
▁gymn 1
▁consommateur 1
39 1
▁panneaux 1
▁collaborateurs 1
alem 1
▁fonctionner 1
▁intense 1
▁récla 1
opt 1
▁disposent 1
▁Yves 1
▁servent 1
▁voté 1
▁Exc 1
▁demandant 1
geant 1
intéresse 1
itte 1
▁raisonnable 1
▁Off 1
▁particul 1
▁efficacité 1
▁savait 1
Sa 1
▁résumé 1
▁permettrait 1
pos 1
▁Dém 1
lem 1
uyer 1
▁pénale 1
▁anticip 1
rad 1
ansion 1
▁Avis 1
ices 1
Histoire 1
CN 1
▁tensions 1
dice 1
court 1
▁Not 1
▁récentes 1
eries 1
▁Camer 1
▁propag 1
▁socio 1
▁Mars 1
▁Apple 1
▁joy 1
▁fê 1
voire 1
GR 1
ouille 1
adhésion 1
océ 1
▁Syst 1
▁concurrents 1
▁disques 1
▁mets 1
rigue 1
▁constructeur 1
▁rela 1
vise 1
▁initiale 1
▁soul 1
▁échelle 1
▁tub 1
▁oblige 1
TIC 1
▁inspiré 1
▁Américains 1
▁restant 1
ied 1
▁CAN 1
▁intervenants 1
icité 1
▁témoigne 1
▁Veuillez 1
▁chor 1
unaux 1
▁Alexandre 1
▁dose 1
▁FRAN 1
▁couvre 1
▁tennis 1
interdiction 1
▁affi 1
▁possession 1
▁suffisant 1
▁Culture 1
▁plonge 1
écou 1
▁prochainement 1
sen 1
▁monsieur 1
20. 1
▁faisons 1
temp 1
▁listes 1
▁Tex 1
▁ciné 1
▁organisateurs 1
▁registre 1
▁meurtre 1
▁Calif 1
▁opérateurs 1
▁avancer 1
▁effectuée 1
▁chanteuse 1
office 1
▁codes 1
▁haine 1
▁magique 1
▁féminine 1
▁abond 1
▁traditionnelles 1
▁pharmacie 1
▁degrés 1
▁géographiques 1
▁superficie 1
actif 1
▁59 1
▁réparation 1
▁appelés 1
▁Fort 1
▁subir 1
▁origines 1
▁enrich 1
▁revendic 1
▁règlements 1
▁préfet 1
▁télévis 1
▁scandale 1
aucune 1
▁(20 1
▁2006. 1
▁inférieure 1
▁77 1
▁forment 1
Esp 1
Inde 1
▁onze 1
...), 1
▁Poste 1
4% 1
inateurs 1
▁exportations 1
▁prestig 1
▁To 1
▁vali 1
▁Sécurité 1
▁concernées 1
Con 1
▁climatiques 1
▁sixième 1
▁boulot 1
unn 1
▁directives 1
vu 1
▁réserver 1
▁décal 1
▁donnera 1
▁ordinaire 1
▁Mass 1
iterranée 1
érales 1
▁Gas 1
▁dirigeant 1
▁adversaires 1
las 1
angers 1
▁sovi 1
ouff 1
Luc 1
▁Ki 1
▁Forum 1
impose 1
▁Tunisie 1
▁obligé 1
▁Ball 1
37 1
▁centi 1
▁mos 1
armerie 1
▁Heureusement 1
▁gain 1
▁établie 1
orées 1
▁latin 1
▁chev 1
orations 1
▁effectués 1
lav 1
▁marquée 1
atteindre 1
▁jeter 1
ockey 1
▁partisans 1
oeil 1
▁Sauf 1
ellation 1
▁plante 1
▁chron 1
▁Quelles 1
tionné 1
orent 1
▁179 1
▁Cad 1
▁issu 1
▁engagés 1
▁efficacement 1
rètes 1
▁camar 1
▁soupe 1
▁trace 1
▁loup 1
▁Rock 1
▁débit 1
▁78 1
▁rendus 1
38 1
▁prouver 1
▁parlementaires 1
occupation 1
IEN 1
▁Ly 1
ender 1
▁jardins 1
prits 1
orable 1
▁Didier 1
▁biologique 1
écuti 1
▁habituellement 1
yo 1
dictions 1
▁fri 1
▁concernent 1
▁écrits 1
VOIR 1
édrale 1
▁tranche 1
▁ferrovi 1
▁obtenus 1
▁assisté 1
▁sachant 1
▁verte 1
avre 1
▁dédiée 1
▁aidé 1
▁Besançon 1
▁hau 1
acteurs 1
▁intr 1
▁paraître 1
deau 1
▁récip 1
▁Quoi 1
▁rubrique 1
▁Éc 1
▁incon 1
▁compatible 1
▁gren 1
▁dame 1
neu 1
▁avocats 1
▁ménage 1
▁paru 1
▁faim 1
▁gestes 1
▁soucis 1
mées 1
▁Franc 1
▁bénéficient 1
amitié 1
▁pouss 1
▁bandes 1
▁légitime 1
▁bourg 1
gny 1
uts 1
▁essentielles 1
▁out 1
lieu 1
anou 1
med 1
▁adulte 1
▁jazz 1
▁optimis 1
▁Rod 1
▁naz 1
▁horiz 1
lue 1
aiser 1
▁plaît 1
Intérieur 1
▁digne 1
▁fixer 1
▁combattants 1
osex 1
▁Dur 1
onnent 1
▁navigateur 1
▁Corse 1
▁étrange 1
imposer 1
urés 1
▁aigu 1
▁volant 1
gentine 1
▁sèche 1
day 1
ommée 1
audience 1
▁moto 1
geot 1
-199 1
atti 1
▁copi 1
▁confie 1
▁Seine 1
listes 1
▁débou 1
▁Nature 1
▁maritime 1
▁el 1
▁ordres 1
rira 1
▁Rappel 1
▁coqu 1
▁Cab 1
▁passées 1
▁lèvres 1
▁référendum 1
mière 1
▁grossesse 1
▁aî 1
▁désigné 1
▁accent 1
▁implant 1
▁évac 1
Phone 1
▁triste 1
▁Bob 1
▁découvertes 1
rouvez 1
▁élection 1
▁archives 1
intégrer 1
▁salarié 1
ignent 1
▁réduite 1
▁doté 1
▁substitu 1
observation 1
▁comparer 1
▁Eh 1
29 1
▁Phil 1
élas 1
▁Simp 1
▁harmon 1
▁EUROP 1
▁considération 1
apprendre 1
oct 1
▁Victor 1
▁artifici 1
▁BD 1
▁âme 1
▁compliqué 1
▁blessure 1
affiche 1
▁réservés 1
▁expédié 1
▁opposition 1
lante 1
▁Finalement 1
ampleur 1
▁ais 1
introduction 1
▁68 1
aution 1
mal 1
▁nationalité 1
▁musical 1
arg 1
▁coucher 1
▁cultiv 1
sol 1
effort 1
▁smartphone 1
oritaires 1
occupe 1
▁Ra 1
▁policier 1
cro 1
▁Leurs 1
zy 1
INT 1
▁suggestion 1
rats 1
▁reproduction 1
▁matinée 1
▁chal 1
▁intervient 1
▁impression 1
tionner 1
▁renseigner 1
▁prénom 1
▁approuvé 1
▁saut 1
▁Bab 1
▁flor 1
▁docteur 1
▁CP 1
onci 1
ING 1
etteur 1
▁fondation 1
▁rattra 1
▁ved 1
▁tribunaux 1
▁investi 1
▁9. 1
▁récent 1
acts 1
▁chargés 1
▁commandant 1
olet 1
▁cond 1
▁semi 1
▁Révolution 1
cieuse 1
▁coalition 1
▁pop 1
rénées 1
▁-, 1
▁évolue 1
itoy 1
▁1994 1
▁dign 1
▁catastrophe 1
▁prière 1
▁ministéri 1
EP 1
▁Cy 1
elin 1
▁configuration 1
▁égal 1
▁conjug 1
▁Quels 1
▁volontaires 1
▁Palais 1
▁absence 1
▁Angleterre 1
▁Dra 1
▁arabes 1
▁gâteau 1
▁traî 1
éville 1
▁comprends 1
▁1998, 1
inium 1
▁progresser 1
▁aiment 1
▁Mos 1
emark 1
▁intéressés 1
▁PN 1
apporter 1
▁ast 1
▁intéressante 1
▁assurée 1
▁serv 1
▁Intro 1
énaire 1
change 1
▁rassembl 1
▁podium 1
▁panor 1
▁chers 1
agra 1
▁séd 1
▁Développement 1
▁récompens 1
éroï 1
▁Idé 1
▁Cher 1
▁étranger 1
▁fores 1
▁conclut 1
▁reposer 1
▁réside 1
▁religieuses 1
▁Produits 1
wn 1
▁démission 1
▁courts 1
▁décédé 1
▁photographie 1
aqu 1
▁mélanger 1
▁Vér 1
actifs 1
▁jaunes 1
▁ave 1
▁immig 1
▁défav 1
▁comédie 1
ére 1
EI 1
ONT 1
bus 1
▁sauvage 1
▁tissus 1
▁remonter 1
▁proposant 1
étudi 1
▁russes 1
▁entra 1
obilier 1
▁da 1
urier 1
▁diffusé 1
▁Reste 1
▁louer 1
▁raconter 1
▁World 1
cisions 1
▁engagée 1
▁stre 1
▁Pin 1
▁zéro 1
▁camion 1
▁collections 1
▁excessi 1
▁rebelles 1
▁associée 1
▁temporaire 1
▁VIH 1
▁jal 1
▁sols 1
▁Bach 1
▁drôle 1
▁accepte 1
▁conserve 1
▁brig 1
ople 1
▁etre 1
▁centrales 1
▁Gold 1
▁futures 1
▁Barcelone 1
▁fenêtres 1
▁vieilles 1
▁hôte 1
▁grille 1
▁bouc 1
gueur 1
nd 1
ulsion 1
▁mous 1
▁rapporteur 1
astre 1
▁méthod 1
olérance 1
▁comédi 1
▁partagé 1
▁Décision 1
teries 1
▁Asie 1
▁contemporain 1
▁aud 1
▁War 1
▁susceptible 1
ics 1
▁fonctionnalités 1
▁coton 1
Euro 1
▁mobiles 1
▁moyennes 1
▁éducation 1
échec 1
▁AM 1
ABLE 1
gué 1
▁Livraison 1
▁aérienne 1
▁Lorraine 1
▁paire 1
▁prends 1
▁consensus 1
bonne 1
▁Norv 1
oll 1
▁fleuve 1
onnet 1
▁Anton 1
▁entraîne 1
▁néer 1
rasser 1
▁OR 1
Ec 1
▁Jui 1
Dame 1
▁Où 1
▁romans 1
fran 1
▁1990, 1
▁Recherche 1
écrire 1
empêcher 1
▁Serge 1
gs 1
▁devenus 1
oom 1
cile 1
▁imposé 1
▁tablette 1
▁intégrée 1
▁sortant 1
▁construite 1
▁impéra 1
▁Sau 1
charger 1
vières 1
▁précon 1
▁paradis 1
seau 1
▁quelconque 1
▁applicable 1
▁prononc 1
▁rural 1
55 1
glais 1
▁médicaux 1
▁assistance 1
atar 1
▁Sub 1
▁monuments 1
▁TR 1
▁Sciences 1
akistan 1
▁parisienne 1
▁honte 1
▁tombé 1
▁déco 1
▁formid 1
Comm 1
avère 1
▁rendue 1
▁séparation 1
institution 1
▁rentre 1
▁regrette 1
élu 1
▁réunir 1
▁spécialisés 1
▁arché 1
▁CS 1
▁Congo 1
▁manqué 1
▁définitive 1
amine 1
tueux 1
/10 1
aya 1
augmenter 1
entendre 1
▁identifier 1
▁laissent 1
trations 1
▁Rac 1
▁sain 1
▁doigt 1
ords 1
▁2005. 1
▁show 1
▁51 1
expliquer 1
▁remercie 1
▁cherchent 1
▁livrer 1
▁volumes 1
▁agriculteurs 1
ILL 1
▁vendus 1
Can 1
▁bouteille 1
quemment 1
▁160 1
▁Château 1
▁injus 1
▁Slo 1
▁tués 1
ignons 1
▁dispens 1
▁Uti 1
▁issue 1
▁satisfais 1
astien 1
▁conv 1
▁cann 1
TES 1
ONS 1
▁pratiquer 1
▁INTER 1
▁renseignement 1
▁diamètre 1
▁débuté 1
▁Croix 1
▁Division 1
feuille 1
▁trains 1
pent 1
▁fermer 1
ierge 1
cm 1
jac 1
▁désigne 1
▁caisse 1
versé 1
▁PSG 1
▁participant 1
▁184 1
▁vies 1
▁vigil 1
▁Mand 1
DC 1
élimination 1
▁Histoire 1
oug 1
omo 1
'" 1
▁armés 1
aisselle 1
aucun 1
▁har 1
▁prisonniers 1
▁Log 1
évent 1
▁instance 1
ONNE 1
TV 1
▁0. 1
▁retenir 1
▁compromis 1
ope 1
▁rassemblement 1
▁Martine 1
▁asi 1
chen 1
▁absolue 1
▁exposé 1
▁libéral 1
▁météo 1
▁détenus 1
▁Soph 1
Michel 1
And 1
▁accordée 1
▁Consul 1
AY 1
Atlantique 1
Mont 1
▁juger 1
▁recommandation 1
▁sab 1
▁queue 1
Éc 1
ands 1
▁retenue 1
▁renouvellement 1
▁Soit 1
valente 1
▁rebond 1
▁occasions 1
▁Wiki 1
empêche 1
Acad 1
▁officiels 1
▁EC 1
intermédiaire 1
LEMENT 1
▁Ath 1
▁algéri 1
altitude 1
▁perception 1
▁Fern 1
▁étern 1
▁Benoît 1
expéri 1
▁Cer 1
mètre 1
▁primaires 1
TP 1
ural 1
▁autorité 1
▁Az 1
▁Belfort 1
nam 1
▁revendi 1
▁problématique 1
▁spé 1
▁DH 1
▁1,5 1
▁températures 1
▁camps 1
▁galerie 1
apparition 1
ECH 1
▁choisis 1
▁rêver 1
▁Méditerranée 1
▁Aug 1
▁Renault 1
▁Trés 1
aib 1
▁allemands 1
▁Fem 1
▁baisser 1
▁bonus 1
jan 1
▁parcour 1
▁passages 1
▁Cra 1
▁provoqué 1
▁génétique 1
▁FR 1
▁Danemark 1
30. 1
▁rigueur 1
▁manifeste 1
▁1992 1
uminium 1
orat 1
▁dons 1
▁légende 1
▁Conse 1
▁vertic 1
▁soumettre 1
▁Hum 1
▁riv 1
▁motivation 1
▁vrais 1
VER 1
▁thérapeu 1
▁croise 1
▁76 1
▁bol 1
▁effectuées 1
ornie 1
▁bourse 1
▁magnifiques 1
aper 1
▁réagir 1
▁sacs 1
▁Roi 1
ajout 1
▁magie 1
▁honor 1
ik 1
▁bateaux 1
▁apparaissent 1
▁Doc 1
▁Ha 1
▁simult 1
▁hé 1
199 1
▁orth 1
▁syri 1
▁Ottawa 1
▁livré 1
▁esprits 1
rions 1
mois 1
▁emmen 1
▁débute 1
▁substance 1
▁Big 1
PL 1
ifi 1
▁organisées 1
Académie 1
anth 1
▁(9 1
▁provoquer 1
habil 1
▁140 1
▁coupable 1
▁recensement 1
▁67 1
çade 1
▁soixante 1
▁encourager 1
▁abat 1
▁détruire 1
▁explications 1
▁King 1
▁surmont 1
▁MM 1
▁examiner 1
erson 1
▁diab 1
▁Ry 1
▁démonstration 1
▁échéant 1
père 1
▁interpr 1
▁NO 1
▁filiale 1
▁olympique 1
▁guerres 1
▁complémentaire 1
▁mines 1
▁Frank 1
oleil 1
▁92 1
▁mn 1
Internet 1
eule 1
oubliez 1
▁verts 1
ennie 1
ogène 1
▁meubles 1
▁Angeles 1
▁Finances 1
▁délégué 1
▁Française 1
:00 1
▁exécutif 1
▁individuelle 1
▁sonore 1
École 1
▁Théâtre 1
Fi 1
angement 1
▁additionn 1
▁demeurant 1
Marc 1
ébastien 1
▁compétitivité 1
ason 1
▁figur 1
uise 1
brer 1
not 1
▁interp 1
▁Livre 1
▁obstacles 1
giène 1
▁africaine 1
▁his 1
verser 1
▁Maria 1
▁chair 1
ducteurs 1
▁procurer 1
▁densité 1
▁démontrer 1
▁dépass 1
▁multipli 1
▁11, 1
▁130 1
▁Questions 1
ané 1
▁représentations 1
▁institution 1
isembl 1
▁expositions 1
▁administration 1
▁inég 1
▁combus 1
urité 1
nique 1
▁Force 1
▁Os 1
▁Fra 1
▁refuser 1
abs 1
▁dent 1
▁pareil 1
cir 1
▁guér 1
▁filet 1
▁Inde 1
▁Amer 1
Australie 1
ower 1
▁persu 1
▁éth 1
▁adolescents 1
▁complexité 1
▁fidé 1
▁Vosges 1
▁refaire 1
sidé 1
▁cimetière 1
VEN 1
▁Supp 1
St 1
▁stocks 1
▁succession 1
▁collectivité 1
feu 1
oises 1
▁essentiels 1
▁détaillée 1
▁72 1
▁Cé 1
diff 1
▁faç 1
▁hectares 1
▁roule 1
▁tourné 1
▁Sab 1
▁ouvriers 1
AIRES 1
▁maroc 1
uba 1
ernant 1
▁nuits 1
▁espoir 1
▁devis 1
▁requête 1
▁Clar 1
▁offerts 1
issons 1
▁espérer 1
▁supporters 1
▁prolonge 1
▁châ 1
▁têtes 1
▁considérés 1
▁habitudes 1
▁entraîner 1
▁surn 1
▁appeler 1
▁tric 1
▁fréquentes 1
▁seni 1
▁émotions 1
▁Mess 1
▁clim 1
▁exer 1
▁Vu 1
ocations 1
▁souffrance 1
▁distinction 1
▁fib 1
▁suppose 1
▁Bill 1
▁Ay 1
▁Ron 1
▁Parties 1
▁supérieurs 1
▁imaginer 1
▁anglo 1
▁Bor 1
▁lé 1
▁%, 1
allenge 1
▁sph 1
▁Mary 1
ortives 1
teau 1
▁enchaî 1
▁impose 1
▁arrivés 1
insertion 1
otique 1
▁lumineux 1
▁Fr 1
EST 1
▁franchement 1
rable 1
enda 1
explo 1
▁10% 1
crite 1
océan 1
▁contienne 1
inions 1
▁Tok 1
accro 1
Reuters 1
▁feux 1
uira 1
▁Coup 1
46 1
▁noté 1
émat 1
▁Chois 1
▁matériels 1
▁juifs 1
▁béton 1
▁rapides 1
▁aperçu 1
▁préférence 1
hypoth 1
▁1993 1
gné 1
burg 1
▁sérieusement 1
ury 1
bl 1
▁Autant 1
▁mentionné 1
▁rassemble 1
▁placés 1
▁Var 1
▁cigare 1
anciers 1
▁%) 1
▁véri 1
cés 1
▁désigner 1
box 1
Plus 1
▁folie 1
▁résidents 1
▁Introduction 1
▁façons 1
exportation 1
▁définit 1
mir 1
▁psychologique 1
▁pério 1
▁asc 1
▁contente 1
▁enthousias 1
▁Côté 1
Af 1
▁manches 1
▁tendre 1
onais 1
envie 1
niti 1
▁subvention 1
ep 1
▁honn 1
▁arguments 1
▁50% 1
▁Jeunes 1
▁albums 1
▁remonte 1
▁comptait 1
▁sk 1
▁résulte 1
▁deviendra 1
00, 1
uée 1
▁Cr 1
▁carré 1
▁poivre 1
▁bactéri 1
▁courir 1
rone 1
▁imposer 1
ovic 1
▁race 1
▁usagers 1
▁ajoutée 1
▁Secrétariat 1
▁lourde 1
▁Gol 1
▁alliés 1
▁soigne 1
▁adhérents 1
▁Mr 1
▁détruit 1
lif 1
▁portail 1
▁tenues 1
▁roues 1
▁recueilli 1
▁éclair 1
enneté 1
▁traverse 1
▁Boul 1
tein 1
▁SNCF 1
▁crist 1
▁Compte 1
ete 1
▁cotisations 1
▁fournisseur 1
▁paiements 1
▁envelopp 1
▁partenariats 1
▁budgétaires 1
▁ya 1
▁desser 1
▁précé 1
▁combinaison 1
▁documentation 1
▁réalisations 1
▁distingue 1
ilée 1
▁sensibilisation 1
▁sacré 1
illons 1
▁cents 1
▁AS 1
▁variable 1
▁existence 1
▁accompagne 1
▁Membres 1
ïn 1
quets 1
▁chinoise 1
▁royale 1
▁ouest 1
miers 1
journ 1
amor 1
ineuse 1
▁utilisateur 1
abeth 1
▁terminée 1
▁initialement 1
▁façade 1
▁Pres 1
▁foc 1
▁Pai 1
▁supporter 1
ènent 1
▁89 1
▁Henry 1
▁théor 1
▁mélo 1
▁Rest 1
urie 1
▁imprécisions 1
▁XVI 1
▁symptômes 1
▁TOU 1
landaise 1
▁virtu 1
▁camping 1
▁chimique 1
▁extérieurs 1
▁répertoire 1
78 1
TIQUE 1
▁cog 1
▁peintures 1
▁aventures 1
itro 1
▁Rouge 1
alors 1
Empire 1
▁clavier 1
▁Enf 1
▁gouverneur 1
▁racines 1
▁universitaires 1
▁remporter 1
▁Spéci 1
oke 1
▁amélioration 1
LS 1
ûte 1
▁08 1
▁récep 1
ènements 1
entielles 1
▁romp 1
inant 1
▁immédiate 1
▁animations 1
▁remercier 1
IO 1
▁Chic 1
▁relevant 1
▁souffre 1
▁mauvaises 1
▁saisi 1
▁lave 1
▁élarg 1
effectuer 1
▁parisien 1
▁cessé 1
▁sportives 1
andie 1
animité 1
▁concré 1
▁.. 1
▁Miss 1
abbé 1
▁Disney 1
▁coutu 1
▁individuel 1
44 1
▁origine 1
▁PH 1
▁épau 1
ulée 1
▁vign 1
▁:- 1
▁ASS 1
dité 1
▁hydra 1
▁favorables 1
▁localité 1
sans 1
▁sélectionner 1
▁1997, 1
▁coéqui 1
▁importations 1
▁échec 1
▁53 1
ctrice 1
▁contrac 1
▁traditions 1
cturation 1
AV 1
▁venti 1
▁pseu 1
▁pair 1
essence 1
▁Nationale 1
▁parts 1
ÉE 1
▁14, 1
Irlande 1
▁Contrairement 1
▁éman 1
▁conqu 1
lum 1
▁13, 1
▁cellule 1
▁précédemment 1
horizon 1
▁installés 1
▁enseignement 1
glomération 1
▁ambiti 1
▁curieux 1
adop 1
▁expert 1
▁externe 1
ward 1
ip 1
▁portable 1
▁carton 1
isode 1
▁figurant 1
▁sages 1
jor 1
▁estiment 1
▁mathématiques 1
▁possèdent 1
▁indiquer 1
▁Mission 1
▁console 1
▁cohérence 1
▁représenté 1
accéder 1
▁Personne 1
▁constamment 1
arriver 1
sous 1
▁1995, 1
▁clos 1
▁commissions 1
▁Rennes 1
hu 1
▁cacher 1
▁quinzaine 1
▁grimp 1
▁intention 1
▁box 1
▁attitude 1
▁reçoivent 1
exploit 1
illez 1
Mon 1
▁sensibilité 1
▁tue 1
▁différenci 1
agram 1
▁figures 1
ouvé 1
▁aérien 1
▁gratuits 1
▁03.29. 1
▁transit 1
▁Ense 1
▁Lum 1
▁PRE 1
▁soyez 1
▁papa 1
▁Tro 1
▁psychi 1
▁découp 1
activ 1
▁Vin 1
▁disparaître 1
▁technologiques 1
▁débuter 1
jectifs 1
▁couches 1
usalem 1
▁Docu 1
▁autorisation 1
▁restru 1
oient 1
cules 1
ALES 1
▁cris 1
▁exercer 1
times 1
lave 1
▁astu 1
▁José 1
▁marine 1
▁diriger 1
▁Roland 1
▁gloire 1
ôtre 1
▁tardi 1
identification 1
▁Lion 1
▁saurait 1
▁CAR 1
▁XIXe 1
▁entrées 1
▁05 1
▁reconnue 1
▁bénéficiaires 1
▁serre 1
▁prédé 1
▁communiste 1
gers 1
LIS 1
▁énergies 1
uyant 1
illant 1
▁esthétique 1
▁gonf 1
tesse 1
▁citron 1
ctif 1
Az 1
house 1
▁Ep 1
▁attirer 1
culaire 1
version 1
▁conventions 1
▁introduit 1
▁Alpes 1
▁entraîneur 1
so 1
▁ONG 1
▁Vict 1
▁biz 1
▁extré 1
▁AG 1
▁chou 1
▁réunit 1
▁chauffeur 1
▁proph 1
▁Travail 1
▁doul 1
▁Bus 1
▁issues 1
épi 1
onomique 1
500 1
▁Park 1
dés 1
OIS 1
▁océ 1
▁graines 1
▁exemplaire 1
▁pira 1
▁hautes 1
▁ajoutant 1
armement 1
▁Faut 1
▁agit 1
▁municipales 1
ographe 1
▁ens 1
▁répression 1
▁sanitaire 1
mber 1
▁productivité 1
▁extrait 1
▁comptent 1
▁Monaco 1
ound 1
▁Lag 1
▁casse 1
▁initial 1
▁GUI 1
▁cohér 1
▁file 1
sifs 1
▁Phot 1
Sur 1
▁2004. 1
▁Steph 1
▁rachet 1
Ely 1
▁pâtis 1
▁infin 1
▁Nat 1
erreur 1
▁capitaux 1
▁subli 1
▁sélectionné 1
▁relâ 1
▁étudié 1
▁sondages 1
CS 1
pitaux 1
▁véritablement 1
▁09 1
▁continué 1
▁descente 1
work 1
▁vive 1
▁consacrer 1
▁oreilles 1
amed 1
▁préven 1
▁quantités 1
▁express 1
▁Stan 1
▁libérer 1
issaire 1
▁résume 1
▁résister 1
▁cathédrale 1
▁judiciaires 1
▁fortune 1
▁transactions 1
47 1
▁amus 1
▁intègre 1
assadeur 1
▁202 1
▁retraités 1
▁latéra 1
▁tournage 1
▁médiatique 1
▁98 1
▁alternative 1
▁monté 1
▁Université 1
▁Californie 1
▁gig 1
▁vaisse 1
azon 1
▁batt 1
uant 1
▁faciles 1
▁composants 1
▁examens 1
▁Die 1
▁py 1
▁cav 1
arisation 1
RS 1
▁nourrir 1
évaluer 1
▁morte 1
attent 1
▁phases 1
▁variations 1
▁britanniques 1
opath 1
▁espagnole 1
▁maqu 1
▁déterminé 1
▁grav 1
rette 1
▁fréquemment 1
▁choisit 1
▁Charte 1
▁récents 1
IIIe 1
▁Vienne 1
▁olympiques 1
anique 1
▁observe 1
mocra 1
▁Rue 1
▁Hill 1
owe 1
▁press 1
▁placement 1
▁balles 1
▁Rio 1
▁dedans 1
▁Bertrand 1
▁cuill 1
▁touristiques 1
▁Cliquez 1
intérêts 1
▁violation 1
▁juridiction 1
inflation 1
49 1
▁spectaculaire 1
▁consultatif 1
▁hockey 1
dd 1
accompagnement 1
▁Contin 1
▁Tant 1
▁affron 1
offici 1
bra 1
▁tournant 1
▁Léon 1
▁numéros 1
▁Seconde 1
▁Lam 1
▁habitant 1
▁rayon 1
LLE 1
▁spont 1
▁valable 1
▁nouveautés 1
▁contemporaine 1
▁conjoint 1
▁Sing 1
▁Dro 1
▁linge 1
right 1
exper 1
▁Création 1
OY 1
▁Rose 1
▁désert 1
▁filière 1
ava 1
plan 1
pres 1
amis 1
versité 1
orial 1
▁évolutions 1
▁TF 1
▁RT 1
tude 1
atmosphère 1
éron 1
▁parcs 1
▁rendant 1
▁frappé 1
▁Six 1
▁Rense 1
Anne 1
▁comté 1
▁entraîné 1
▁nov 1
▁Monte 1
▁apparition 1
alogues 1
▁heureuse 1
▁Devant 1
Rép 1
▁diffusée 1
ainissement 1
▁déploiement 1
NA 1
▁1980 1
▁maintenance 1
ési 1
▁véritables 1
▁Kos 1
▁Famille 1
lons 1
▁résolu 1
▁impéri 1
▁consentement 1
▁familiales 1
iff 1
▁productions 1
▁Personn 1
▁ventre 1
▁bancaires 1
▁tut 1
rances 1
▁prélimin 1
▁écoute 1
▁Association 1
▁Mill 1
▁BTS 1
▁visibilité 1
▁singuli 1
antis 1
osyst 1
sec 1
▁pomp 1
30, 1
▁examiné 1
▁supports 1
▁médiév 1
▁boissons 1
▁unies 1
▁Hall 1
▁solides 1
vert 1
▁embar 1
▁bière 1
▁Retrouvez 1
▁continuité 1
asile 1
exclusion 1
▁heureusement 1
ull 1
▁priori 1
reau 1
▁management 1
▁Win 1
vice 1
▁nor 1
▁trouvera 1
▁argument 1
▁ajus 1
▁industries 1
peurs 1
▁fixée 1
▁librement 1
déc 1
éditeur 1
▁ber 1
▁accrue 1
▁simplicité 1
▁20% 1
▁civilisation 1
fil 1
ancel 1
▁(201 1
▁côtes 1
▁Han 1
▁égale 1
▁up 1
▁Sport 1
inez 1
▁photographe 1
▁pourrais 1
▁TE 1
igny 1
▁ponctu 1
ouement 1
▁CF 1
▁incontournable 1
▁brésil 1
▁réussit 1
ctionn 1
41 1
▁vendeur 1
indic 1
▁bénéficié 1
▁Hor 1
▁vib 1
gner 1
▁connait 1
▁USB 1
▁caractères 1
▁Isabelle 1
▁Norvège 1
verg 1
▁Salon 1
▁produite 1
▁Caisse 1
xy 1
lections 1
▁Pacifique 1
▁tenus 1
▁apparemment 1
▁dispos 1
▁rangs 1
tisation 1
!!! 1
▁gâ 1
▁nob 1
▁apprécierez 1
térité 1
▁néglig 1
▁entrepreneurs 1
▁Aur 1
angez 1
▁princes 1
▁Mét 1
▁trésor 1
▁Mathieu 1
▁Trésor 1
▁animé 1
▁préfecture 1
▁valid 1
pire 1
▁cesser 1
▁tentatives 1
NES 1
▁Eli 1
▁mixte 1
▁pensées 1
▁travaillant 1
▁sécher 1
eler 1
cf 1
▁») 1
▁prostitu 1
▁existants 1
▁concentrer 1
▁révéler 1
▁promesse 1
ailler 1
enis 1
▁Liban 1
▁cumul 1
▁drogues 1
▁Nav 1
ropol 1
▁Nov 1
▁Pop 1
▁directeurs 1
▁2019 1
▁joint 1
▁incluant 1
▁Actuellement 1
▁Milan 1
▁salut 1
actrice 1
▁consécuti 1
▁maillot 1
▁Jeanne 1
ool 1
▁île 1
"), 1
▁canapé 1
▁apprécier 1
▁éditeurs 1
▁Ur 1
euses 1
▁créateur 1
▁invo 1
▁charbon 1
airage 1
▁boutiques 1
▁activement 1
▁Parfois 1
aming 1
agas 1
▁démén 1
▁prenez 1
▁ressent 1
dep 1
▁identique 1
▁installée 1
▁triom 1
▁réconc 1
▁parlant 1
..., 1
iert 1
▁usages 1
▁chrétien 1
Air 1
▁usine 1
▁démontré 1
▁affronter 1
▁Adam 1
▁Four 1
▁saisie 1
ona 1
▁fat 1
▁Politique 1
▁Valls 1
▁1) 1
▁Ken 1
entra 1
58 1
▁poussé 1
▁Chef 1
▁réform 1
▁Deb 1
phab 1
élarg 1
dres 1
opport 1
▁employeurs 1
▁Bell 1
▁circuits 1
▁souple 1
▁énonc 1
▁dîner 1
cap 1
▁transforme 1
▁commém 1
▁Camb 1
▁mystère 1
▁Seulement 1
inois 1
▁racisme 1
▁Rhône 1
tenez 1
▁gendarmerie 1
tines 1
▁dignité 1
▁collègue 1
▁voyez 1
identifier 1
▁Gabriel 1
▁Provence 1
ereur 1
agissant 1
installe 1
▁07 1
axe 1
urrence 1
▁séminaire 1
▁dépendance 1
▁suggé 1
▁conservateur 1
▁Vue 1
▁brevet 1
▁parrain 1
▁suéd 1
▁décrire 1
▁sembler 1
▁inond 1
▁invitons 1
▁Jeudi 1
▁Ker 1
LEC 1
▁majeurs 1
isées 1
▁soirées 1
étage 1
▁2) 1
▁commandement 1
▁bijoux 1
▁optique 1
▁One 1
▁ultime 1
▁papiers 1
▁Ani 1
▁rugby 1
play 1
▁colonne 1
instar 1
▁faill 1
▁Hel 1
▁commerçants 1
olive 1
▁Group 1
robation 1
adel 1
▁tome 1
▁provoque 1
▁souter 1
▁Bir 1
▁cote 1
▁reconstruction 1
lieue 1
▁libéra 1
images 1
▁alé 1
itres 1
▁gains 1
▁mobilier 1
▁GUIDE 1
▁nar 1
▁poète 1
▁Allez 1
ocal 1
▁alertes 1
▁soeur 1
▁iran 1
apport 1
▁éliminer 1
accélé 1
▁voler 1
▁Jérusalem 1
Th 1
entrepren 1
▁peines 1
▁Sébastien 1
▁visibles 1
▁défilé 1
▁restait 1
▁universelle 1
▁Site 1
ted 1
▁avancée 1
▁étroite 1
▁interprétation 1
▁infos 1
▁Mardi 1
▁chôme 1
▁néo 1
▁négatif 1
examiner 1
▁sauvet 1
▁trous 1
OURS 1
▁potentiels 1
ensif 1
▁loint 1
osa 1
▁socialistes 1
MENTS 1
assage 1
ask 1
ild 1
▁schéma 1
BS 1
:0 1
▁avancées 1
▁Protocole 1
▁mentale 1
▁grandi 1
iales 1
▁MIN 1
▁Leg 1
Pré 1
affich 1
▁live 1
▁respecte 1
▁Real 1
▁prononcé 1
▁alimentation 1
▁revers 1
▁sauvegarde 1
lisé 1
▁retourne 1
▁Amb 1
▁édit 1
▁repous 1
▁blanches 1
rén 1
▁Mam 1
▁accompagnée 1
CL 1
▁178 1
▁prévenu 1
mile 1
▁(17 1
iture 1
▁Allemands 1
▁acier 1
▁plaques 1
▁troph 1
▁annexe 1
ouvant 1
▁prétexte 1
▁opinion 1
élèves 1
tz 1
oté 1
▁miel 1
▁Jérôme 1
▁demeurent 1
ulations 1
▁diffuser 1
▁semestre 1
▁manuel 1
▁Niger 1
▁86 1
▁sons 1
lip 1
▁torture 1
▁hall 1
▁montants 1
wi 1
▁cub 1
▁concepts 1
▁AUX 1
▁votes 1
▁Petite 1
gnes 1
▁fiction 1
▁télés 1
▁déclarer 1
-12 1
▁accompli 1
▁doctor 1
▁enceinte 1
▁renvoy 1
▁dormir 1
▁inutile 1
acer 1
▁Vent 1
cts 1
▁agressi 1
attra 1
▁!) 1
▁intime 1
▁EST 1
▁Bang 1
▁musiques 1
▁FIN 1
▁africains 1
▁réels 1
lisée 1
▁projection 1
▁correspondent 1
▁Master 1
inspiration 1
▁réuni 1
▁Cannes 1
▁entrepris 1
▁prononcer 1
▁vapeur 1
itale 1
▁genres 1
▁Sk 1
iterrané 1
▁largeur 1
unanimité 1
43 1
▁Lundi 1
▁varie 1
▁ramener 1
▁néglige 1
▁promenade 1
ould 1
▁02 1
▁exposés 1
▁lunettes 1
▁1991 1
meubles 1
▁circonscription 1
▁AP 1
▁gratuites 1
▁voyager 1
▁fédération 1
anz 1
', 1
étape 1
▁expression 1
▁puissante 1
▁Oct 1
▁répartis 1
▁desqu 1
oléon 1
▁assemblée 1
▁actionnaires 1
▁informatiques 1
▁réaffir 1
▁gendarmes 1
▁entré 1
▁trucs 1
▁enquêteurs 1
▁fabricant 1
indemn 1
▁serais 1
▁abandonné 1
▁terroriste 1
auré 1
tinéraire 1
▁planif 1
▁individuelles 1
▁attente 1
▁2003. 1
yne 1
amer 1
▁bur 1
ulf 1
licopt 1
▁BR 1
chev 1
▁Green 1
▁Algérie 1
intégra 1
Elle 1
huit 1
▁62 1
▁branches 1
sibles 1
attaquant 1
▁automatiqueOui 1
▁budgets 1
▁retraites 1
▁étonnant 1
▁occidentale 1
▁spl 1
▁accidents 1
arités 1
issage 1
▁balance 1
▁surveiller 1
▁Crédit 1
▁stationnement 1
▁surfaces 1
▁météor 1
42 1
▁Flori 1
qua 1
▁WC 1
▁connues 1
▁domination 1
▁Soleil 1
▁informer 1
▁développés 1
ardi 1
▁Bull 1
▁offerte 1
▁Laval 1
agré 1
▁amené 1
essayer 1
▁envisager 1
▁SOMM 1
▁mout 1
▁contrainte 1
▁seigneur 1
▁précises 1
▁suffisante 1
▁élaboré 1
▁formidable 1
appliquent 1
▁Hal 1
chers 1
▁devint 1
euil 1
mblé 1
tenait 1
▁Juste 1
▁enn 1
▁IP 1
▁exprimer 1
dules 1
▁redé 1
outes 1
▁vif 1
▁artisans 1
▁urg 1
édent 1
aisie 1
▁Bâ 1
▁Salle 1
▁crises 1
▁axe 1
oche 1
valuation 1
▁rechercher 1
▁phénomènes 1
▁INF 1
▁nulle 1
Alex 1
▁quad 1
▁110 1
accus 1
▁appliquée 1
▁goûter 1
▁intentions 1
heureux 1
▁tw 1
ordinateur 1
▁fatigue 1
▁Produit 1
▁Près 1
▁Conn 1
▁Barack 1
▁interromp 1
▁créativité 1
quement 1
▁indiquant 1
▁faune 1
▁bleue 1
▁gravité 1
▁acceptez 1
▁Jules 1
▁have 1
▁Neu 1
▁marins 1
▁cinquant 1
▁traum 1
▁Land 1
▁gagnant 1
▁dénoncer 1
ueux 1
▁rez 1
▁flamb 1
▁adaptées 1
▁situées 1
formément 1
▁pais 1
▁compagnon 1
rigérateur 1
▁musées 1
▁pôle 1
▁phras 1
ican 1
El 1
▁doublé 1
champ 1
vill 1
rogation 1
atisme 1
observ 1
▁conseillé 1
▁sexes 1
▁Dre 1
▁portug 1
▁Far 1
▁Noir 1
▁existant 1
▁touchant 1
▁territoriales 1
▁inclin 1
▁plaintes 1
▁Mach 1
uck 1
▁banlieue 1
ACH 1
ecue 1
▁équipement 1
▁significative 1
èges 1
▁CEE 1
▁Stat 1
CD 1
point 1
▁Amen 1
▁crainte 1
▁Moul 1
▁logistique 1
▁charte 1
▁larges 1
inement 1
▁baie 1
▁concerné 1
▁discrimin 1
JET 1
▁are 1
▁sanitaires 1
Jac 1
▁coulis 1
▁hyp 1
Cal 1
▁qualifiés 1
▁Finlande 1
bé 1
▁créant 1
▁demandeurs 1
▁plai 1
▁foire 1
dem 1
▁fantastique 1
maire 1
▁déni 1
▁boucle 1
56 1
▁Deuxième 1
▁Soud 1
▁opérationnel 1
▁Princip 1
▁remplace 1
▁soviétique 1
▁PDG 1
▁égyp 1
▁couteau 1
incer 1
formation 1
habitation 1
▁délin 1
▁Sep 1
▁lentement 1
cence 1
▁ty 1
▁observé 1
▁portait 1
IST 1
▁occasionn 1
téroï 1
▁toilettes 1
oniques 1
▁Kab 1
▁souvient 1
▁intéressé 1
cope 1
▁titulaires 1
lèvent 1
▁.... 1
▁constituée 1
▁Mol 1
▁humeur 1
enrich 1
▁sangu 1
▁promesses 1
▁fiscales 1
▁juni 1
▁éte 1
▁fiabilité 1
▁intitulée 1
▁vern 1
▁Peugeot 1
▁pp 1
▁Play 1
hal 1
▁doucement 1
▁rayons 1
▁golf 1
▁engage 1
▁abouti 1
allage 1
incendie 1
▁dépassé 1
▁poignée 1
▁visiblement 1
▁Fac 1
ensions 1
▁Canal 1
▁cités 1
▁trouvez 1
▁oeufs 1
▁supérieures 1
▁prêtre 1
aka 1
droid 1
▁fau 1
▁départemental 1
▁Irak 1
▁faculté 1
▁logo 1
uz 1
▁United 1
▁sexuelles 1
▁arra 1
habitat 1
▁rad 1
▁goûts 1
▁peaux 1
Ac 1
▁investir 1
▁63 1
▁Stade 1
▁maîtriser 1
▁universel 1
▁rejeté 1
Alsace 1
▁sections 1
▁nomme 1
▁contribuent 1
extension 1
▁merveilleux 1
octobre 1
▁ritu 1
▁fausse 1
▁sentiers 1
illés 1
▁séquence 1
▁expertise 1
éléments 1
ITS 1
▁Tal 1
▁Pékin 1
▁récupération 1
▁harc 1
8% 1
▁sect 1
ministre 1
▁âgée 1
▁latine 1
Ivoire 1
exemp 1
▁bords 1
▁négocier 1
▁Présid 1
▁fraude 1
▁portefeuille 1
▁démontre 1
▁assurant 1
▁vagues 1
▁Mans 1
▁évolué 1
mod 1
▁vraisembl 1
▁Ky 1
▁garantit 1
▁conversation 1
▁dénonce 1
▁polémique 1
escal 1
itan 1
refour 1
▁cui 1
▁république 1
▁championnats 1
▁Juifs 1
ailli 1
▁Anglais 1
obtention 1
▁dissim 1
▁placée 1
employeur 1
▁favorise 1
▁business 1
hos 1
▁envoie 1
▁(16 1
▁foyers 1
▁But 1
/04 1
▁Public 1
▁Arts 1
▁flot 1
▁1994, 1
auph 1
▁souhaiter 1
▁prit 1
▁carrés 1
▁ge 1
▁épuis 1
ONG 1
▁harmonie 1
lations 1
▁PARIS 1
▁opinions 1
élib 1
anée 1
▁relax 1
dicaux 1
▁plaign 1
▁2002. 1
ima 1
▁évènements 1
▁Eng 1
▁politi 1
latéra 1
istent 1
▁Cuis 1
illent 1
▁poit 1
▁lourds 1
ero 1
ancée 1
avril 1
▁faiblesse 1
wick 1
appuie 1
▁larmes 1
▁attribué 1
▁entouré 1
▁refroi 1
ÉN 1
▁96 1
▁News 1
▁neur 1
▁debout 1
articles 1
ware 1
▁Système 1
▁élar 1
▁enseigne 1
▁ferroviaire 1
▁montrant 1
échal 1
unique 1
▁trio 1
▁thématiques 1
▁Arnaud 1
▁gère 1
▁créés 1
▁?? 1
▁Liste 1
▁spécul 1
▁suicide 1
▁SERV 1
iront 1
▁Roch 1
▁pomme 1
▁Nathalie 1
roissement 1
▁photographies 1
▁chercheur 1
▁levée 1
▁Retour 1
ness 1
▁luc 1
▁pénal 1
▁personnellement 1
▁CGT 1
▁Open 1
▁joindre 1
▁Hongrie 1
aigne 1
▁boite 1
gon 1
▁élevées 1
▁authentique 1
▁firme 1
ORMATION 1
eller 1
▁éclat 1
mas 1
▁allég 1
Art 1
▁traits 1
alit 1
▁Cir 1
▁nés 1
▁Xavier 1
erner 1
▁huile 1
▁existantes 1
▁distinguer 1
▁Cler 1
▁consacre 1
▁nommée 1
▁Benj 1
▁manus 1
▁autonomie 1
▁francophone 1
équivalent 1
atine 1
▁pack 1
▁new 1
▁amor 1
▁Mercredi 1
▁Compagn 1
▁900 1
▁décennie 1
▁correct 1
▁disciplines 1
acier 1
▁remarqué 1
try 1
▁régulation 1
▁déç 1
▁turb 1
▁indispensables 1
nelle 1
chard 1
mus 1
▁noix 1
shir 1
▁réservoir 1
encé 1
▁comptable 1
lètes 1
▁partiellement 1
▁souveraineté 1
9% 1
▁charm 1
▁modeste 1
▁orientations 1
animal 1
▁arn 1
▁bête 1
▁news 1
▁affect 1
▁leçons 1
▁sauvages 1
▁ENTRE 1
ida 1
▁voisine 1
▁bass 1
OTRE 1
▁Pa 1
▁chic 1
▁quarts 1
lable 1
▁retomb 1
tifier 1
▁Pier 1
▁avancé 1
▁équitable 1
▁rect 1
▁ennemi 1
▁moule 1
oque 1
▁rappro 1
▁répondent 1
▁flotte 1
▁instructions 1
cipation 1
▁reflète 1
▁ravi 1
▁170 1
▁violent 1
▁(198 1
▁arrêtés 1
▁manuf 1
▁clichés 1
▁15. 1
DR 1
▁avenue 1
▁Contre 1
iro 1
▁particules 1
informatique 1
versement 1
▁découl 1
▁fermée 1
▁Mario 1
faits 1
▁Gaza 1
élevage 1
▁assorti 1
▁MP 1
▁DI 1
▁industrie 1
▁positifs 1
▁arran 1
▁caractéristique 1
▁villa 1
▁gastr 1
▁Williams 1
▁dénoncé 1
▁17, 1
▁passera 1
tage 1
▁tas 1
▁administratifs 1
▁accusations 1
▁mg 1
▁pompe 1
▁Caroline 1
▁biblioth 1
abe 1
éthique 1
▁horm 1
tille 1
▁partiel 1
▁Libye 1
▁Union 1
▁rapporté 1
ulli 1
▁Source 1
prend 1
etnam 1
▁visent 1
▁Tokyo 1
iki 1
▁Jos 1
▁extérieures 1
▁Sophie 1
▁résolutions 1
Denis 1
pen 1
▁q 1
▁usines 1
▁CAP 1
▁insiste 1
▁Concernant 1
▁inscription 1
▁SEC 1
ovo 1
▁Mohamed 1
▁61 1
▁play 1
accessi 1
▁noires 1
ody 1
▁homosex 1
▁contenir 1
Après 1
▁confusion 1
▁déter 1
▁serai 1
▁exploitation 1
▁neutra 1
▁franchise 1
▁Nad 1
oral 1
▁divin 1
▁doctr 1
▁fic 1
gestions 1
▁produisent 1
▁récompense 1
▁temple 1
oce 1
▁artic 1
▁adep 1
onnez 1
▁dieu 1
▁présidents 1
tifié 1
▁set 1
jihad 1
tia 1
▁Résultat 1
▁Situé 1
▁voyant 1
▁Num 1
▁carburant 1
▁Protection 1
▁conversion 1
▁vél 1
▁fameuse 1
alth 1
miner 1
▁Défin 1
▁écrans 1
"). 1
ech 1
▁Formation 1
▁Laissez 1
▁testé 1
èler 1
hr 1
▁1970 1
▁arrêts 1
attaquer 1
▁appartements 1
▁soutenue 1
▁avais 1
▁agran 1
autoroute 1
rose 1
▁miroir 1
▁signée 1
▁arnaque 1
▁rapprocher 1
▁bret 1
▁Kim 1
cre 1
▁stopp 1
▁cliniques 1
ourses 1
▁chasseurs 1
▁DS 1
ESS 1
▁cinquantaine 1
▁dévoi 1
▁territoriale 1
▁Home 1
▁puissants 1
▁fournies 1
▁recommander 1
▁Valérie 1
vidence 1
▁délicieux 1
▁renoncer 1
▁abonnements 1
ardo 1
▁trompe 1
▁impos 1
▁Metz 1
▁décro 1
▁module 1
▁refuge 1
▁individuels 1
▁rempla 1
▁solde 1
▁dirigée 1
▁suggère 1
▁Bah 1
agisse 1
▁Bravo 1
mettre 1
ussée 1
▁ras 1
antie 1
▁légal 1
get 1
▁restrictions 1
aver 1
▁instances 1
oler 1
éni 1
▁conservé 1
▁réfléch 1
▁trah 1
▁125 1
▁Frais 1
Britannique 1
hébergement 1
illeur 1
▁manquent 1
▁mépris 1
▁paroissi 1
▁savais 1
▁cell 1
▁Traité 1
▁emm 1
▁Nam 1
▁célèbres 1
▁texture 1
▁hôpitaux 1
▁vole 1
▁Communautés 1
ourager 1
Jacques 1
▁indiquent 1
▁risquent 1
▁Canadien 1
▁Médi 1
Ara 1
▁dramatique 1
atch 1
CC 1
ito 1
oba 1
▁vedette 1
Em 1
ouvement 1
▁mour 1
▁fondamentale 1
▁visu 1
▁chère 1
▁appliqué 1
2), 1
▁fabriquer 1
▁effectue 1
▁concevoir 1
▁Stock 1
▁croissant 1
▁recens 1
▁organisés 1
entiels 1
▁qualifier 1
▁occuper 1
▁traverser 1
▁stars 1
▁fût 1
ella 1
▁CONS 1
aki 1
▁Analy 1
dios 1
▁Neuf 1
▁signi 1
▁1999. 1
avoue 1
▁bronze 1
unt 1
hol 1
ercer 1
▁350 1
cière 1
▁Blanche 1
octro 1
▁indirec 1
▁tenait 1
expé 1
▁Bol 1
▁intermédiaire 1
▁chrétienne 1
▁balade 1
▁suspend 1
▁tchèque 1
▁transformé 1
ouge 1
▁primordi 1
▁2001. 1
▁croissante 1
▁fibres 1
▁préjudice 1
▁surprises 1
▁Poki 1
▁locations 1
▁bienvenue 1
Laur 1
▁casque 1
▁Kur 1
▁rav 1
▁industrielles 1
▁éventuelle 1
▁accroître 1
una 1
▁coupé 1
akh 1
▁variés 1
▁plén 1
▁reçus 1
▁rassembler 1
▁redout 1
cinq 1
▁1992, 1
▁empêche 1
▁poêle 1
▁Championnat 1
▁Bourgogne 1
▁Bac 1
▁Ontario 1
▁ambi 1
▁métropole 1
▁extraits 1
sme 1
▁1996, 1
autique 1
ureur 1
▁réperc 1
▁révolutionnaire 1
▁Ru 1
▁aveug 1
▁Représent 1
▁entités 1
▁variables 1
▁rési 1
▁masculin 1
▁Ress 1
▁basket 1
▁tentent 1
▁EP 1
drome 1
▁comte 1
itait 1
▁Bil 1
▁analyser 1
▁financements 1
▁approches 1
Christ 1
▁durer 1
hydro 1
▁comités 1
▁perc 1
▁Doub 1
▁appuyer 1
▁viendra 1
épisode 1
▁Partie 1
▁paquet 1
▁concertation 1
▁rurales 1
▁puits 1
▁Patrimoine 1
▁méconn 1
▁amendement 1
▁Libre 1
▁impati 1
▁envies 1
inton 1
▁u 1
▁sûreté 1
▁signaler 1
partie 1
Marché 1
sieurs 1
▁francophones 1
▁céder 1
▁assembl 1
orchestre 1
▁adore 1
▁protège 1
appuyer 1
▁réhabil 1
irent 1
Autri 1
▁union 1
▁créateurs 1
▁clics 1
agnol 1
▁japonaise 1
▁20, 1
Autriche 1
▁critère 1
▁alinéa 1
ian 1
affront 1
▁bouger 1
▁Jord 1
icilement 1
▁exclu 1
▁pressions 1
expertise 1
ensible 1
ancier 1
rasse 1
▁conces 1
tibles 1
locu 1
▁transferts 1
jections 1
▁commander 1
▁ports 1
▁illic 1
Pas 1
▁décéd 1
▁cohésion 1
▁GM 1
▁fumée 1
▁clip 1
▁purement 1
▁quarantaine 1
▁brillant 1
▁Seuls 1
▁tirage 1
▁églises 1
▁mousse 1
ciplin 1
▁TRA 1
▁contiennent 1
▁estimations 1
▁79 1
▁Autrement 1
▁11. 1
▁1988 1
▁1989 1
▁cock 1
▁publiées 1
▁my 1
émotion 1
nera 1
ètent 1
écrivain 1
mètres 1
▁brun 1
▁Cu 1
▁réveill 1
▁plur 1
▁soumise 1
▁partagent 1
▁arbre 1
▁duc 1
▁voudrait 1
▁rive 1
offres 1
▁lauré 1
▁artistiques 1
▁Porte 1
▁Gard 1
▁Rendez 1
▁ordinateurs 1
TIN 1
▁tomates 1
▁bombe 1
▁électoral 1
▁Champs 1
▁constitutionnel 1
▁rh 1
▁patience 1
▁Trop 1
loque 1
▁combler 1
▁Ul 1
bach 1
▁phrases 1
vern 1
▁Yann 1
importation 1
▁équivalent 1
▁Rab 1
alinéa 1
▁Jones 1
▁MAN 1
ador 1
▁administrations 1
▁Brig 1
archi 1
erté 1
éclairage 1
▁opposé 1
abandon 1
▁Réseau 1
lège 1
▁provient 1
icien 1
▁League 1
othérapie 1
Accord 1
▁SY 1
▁Connexion 1
▁Sun 1
▁(15 1
vic 1
▁Mati 1
▁diminué 1
▁1993, 1
▁pattes 1
Canada 1
▁dépôts 1
jeux 1
▁mettra 1
▁candidate 1
▁ira 1
▁localisation 1
▁rapprochement 1
élène 1
▁Raymond 1
ASS 1
▁fautes 1
▁case 1
▁mut 1
▁touchés 1
bis 1
▁Sign 1
▁Foot 1
ouli 1
▁Australie 1
▁varier 1
▁déser 1
estim 1
▁saura 1
▁écrivain 1
▁souviens 1
▁correspondance 1
VEL 1
▁contraint 1
▁mobiliser 1
▁hol 1
▁mondialisation 1
▁adresser 1
▁compagnons 1
toi 1
▁emplacement 1
▁déguster 1
PER 1
▁reçues 1
▁Roumanie 1
▁accorder 1
▁considèrent 1
cop 1
artis 1
hypothèse 1
▁coins 1
▁masque 1
Bay 1
▁drapeau 1
▁globalement 1
▁ay 1
▁sexuel 1
ther 1
aptiste 1
▁éditeur 1
▁trouble 1
▁Smith 1
▁catholiques 1
▁difficilement 1
▁exception 1
Ep 1
FM 1
fiants 1
aris 1
▁posée 1
▁lan 1
▁dessert 1
▁poursuites 1
implant 1
▁nuis 1
▁bouteilles 1
▁Chapitre 1
FI 1
▁arc 1
-20 1
▁évaluations 1
Ukraine 1
▁adjoin 1
▁délivre 1
▁aisément 1
▁étages 1
UNE 1
▁Buff 1
tip 1
▁tuy 1
▁compren 1
auration 1
adox 1
arti 1
raction 1
aria 1
▁réelles 1
urrent 1
▁nettoyer 1
ecc 1
▁put 1
▁Dun 1
▁qualifications 1
▁Droit 1
▁septième 1
▁camarades 1
▁bourgeois 1
▁minorités 1
▁Gilbert 1
agone 1
▁Imm 1
raux 1
audit 1
cient 1
▁multitude 1
▁Lan 1
▁pouvais 1
▁frig 1
▁véc 1
▁falloir 1
▁sat 1
▁Direct 1
▁Virgin 1
▁signification 1
▁piét 1
▁franchir 1
atéra 1
ENS 1
Albert 1
▁fonctionnaire 1
Martin 1
ISS 1
▁soc 1
approbation 1
▁récolte 1
▁handicapées 1
▁Arri 1
▁Abd 1
ainement 1
▁officiers 1
▁boutons 1
LIC 1
abst 1
gence 1
▁étonn 1
▁échapper 1
bour 1
▁strictement 1
▁corriger 1
▁officier 1
léans 1
▁chanter 1
▁lots 1
raits 1
enfer 1
▁Dol 1
Gar 1
▁Drag 1
tour 1
▁communal 1
ula 1
▁visés 1
▁poitrine 1
▁marin 1
▁Jacob 1
▁pist 1
▁SOMMAIRE 1
▁visée 1
Bon 1
▁Fou 1
▁inégalités 1
omètre 1
▁Joe 1
▁effectif 1
▁laver 1
▁Mém 1
▁cibles 1
▁Commerce 1
▁républicain 1
▁Cuba 1
▁dégradation 1
▁Elect 1
▁donnés 1
ections 1
▁fragile 1
▁municipaux 1
▁enter 1
vation 1
▁exerce 1
▁poster 1
cho 1
▁Renseignements 1
▁Pakistan 1
gnon 1
▁More 1
illus 1
▁pêcheurs 1
▁notions 1
toral 1
▁tombée 1
illette 1
▁lob 1
▁attire 1
entier 1
▁engl 1
aker 1
énie 1
▁informe 1
▁Cin 1
▁teneur 1
▁pertinentes 1
rus 1
▁chômeurs 1
▁classés 1
emprun 1
▁déroulement 1
76 1
olid 1
thur 1
▁thermique 1
▁gourmand 1
▁fixation 1
▁Cinq 1
▁massive 1
▁paroisse 1
▁axes 1
▁requérant 1
▁balcon 1
▁aériennes 1
octur 1
▁Maître 1
arez 1
mide 1
jets 1
▁Las 1
▁ben 1
▁extr 1
ciers 1
dun 1
▁Olymp 1
vergure 1
ilés 1
▁Sac 1
▁flé 1
akar 1
▁Tourn 1
▁lune 1
▁Ajoutez 1
▁gueule 1
▁insisté 1
▁obsc 1
▁amateur 1
▁COMMUN 1
arrondissement 1
▁câble 1
▁mecs 1
▁épic 1
▁fondamental 1
▁Palestin 1
▁gîte 1
tiser 1
▁abonnés 1
▁styles 1
▁protéines 1
ïs 1
▁Tari 1
▁vivants 1
▁Tech 1
▁Afric 1
▁pari 1
▁bilatéra 1
▁lav 1
ophob 1
▁téléchargement 1
▁jouant 1
▁gardé 1
▁thématique 1
▁Press 1
▁datant 1
▁16, 1
rovis 1
▁démis 1
▁2018, 1
▁mères 1
▁pensais 1
août 1
▁litres 1
▁conviction 1
chester 1
▁boy 1
▁établies 1
▁cheminée 1
▁PRES 1
ennemi 1
international 1
doc 1
▁indices 1
▁autorisés 1
▁postal 1
▁acquérir 1
▁Test 1
MIN 1
▁Pay 1
▁Gros 1
▁proclam 1
olais 1
via 1
▁flash 1
▁étudiante 1
▁poulet 1
▁confier 1
neus 1
now 1
▁renouveler 1
menter 1
▁fauteuil 1
10. 1
peaux 1
▁Arm 1
entis 1
▁Rep 1
▁Environ 1
jo 1
▁compétitions 1
▁choisie 1
▁ultérieure 1
▁sapeurs 1
▁originaires 1
▁traduire 1
▁Lec 1
▁attaqué 1
parti 1
▁handicapés 1
▁REG 1
ssants 1
anna 1
inations 1
▁théâ 1
▁héri 1
▁hospit 1
▁passes 1
zo 1
▁indications 1
▁sélectionnés 1
▁linguistique 1
▁redev 1
▁connaissez 1
stan 1
▁cinémat 1
▁affecté 1
▁paras 1
▁déterminée 1
▁empre 1
▁condamnation 1
tionnellement 1
onymes 1
▁Environnement 1
Ré 1
▁dor 1
▁capture 1
BI 1
▁Lamb 1
▁mû 1
▁adaptation 1
▁couverts 1
entente 1
▁pharmace 1
▁sortent 1
Alpes 1
sionnaires 1
▁DG 1
LM 1
▁Benjamin 1
▁PER 1
Québec 1
▁:) 1
▁douleurs 1
▁Sports 1
lat 1
▁escal 1
▁TH 1
▁courante 1
ief 1
▁tracé 1
98 1
▁vents 1
obel 1
effici 1
▁TER 1
▁routier 1
ilière 1
fiés 1
▁incapable 1
▁imper 1
▁It 1
▁mill 1
▁concrètes 1
ressement 1
▁richesses 1
▁paisible 1
▁troub 1
▁Celles 1
▁autrefois 1
omes 1
▁Ouest 1
▁dan 1
oncent 1
▁Roche 1
▁instants 1
▁serveurs 1
▁modifiée 1
▁annoncée 1
▁doutes 1
wer 1
▁dégager 1
▁sensations 1
diversité 1
▁télécommun 1
▁innoc 1
ergé 1
▁connecter 1
habitants 1
ink 1
TH 1
▁fouet 1
▁Afghanistan 1
▁visé 1
▁aimez 1
▁composés 1
▁intra 1
▁enregistrés 1
▁boulevard 1
▁uniques 1
▁démarrage 1
▁maires 1
1), 1
▁collectionneurs 1
▁CONSE 1
▁Grenoble 1
▁étroitement 1
▁assurent 1
▁directrices 1
▁seniors 1
érants 1
▁dangers 1
▁Accès 1
onisation 1
▁mondiaux 1
▁préoccupation 1
▁lign 1
▁métaux 1
▁écras 1
back 1
épargne 1
ALL 1
▁arg 1
▁spectateur 1
▁anth 1
▁amont 1
▁colonnes 1
▁horizont 1
▁réservée 1
démocra 1
▁posent 1
imposition 1
agères 1
Tout 1
▁fiable 1
▁Fils 1
▁conçue 1
▁30% 1
▁Vérif 1
▁tube 1
▁australi 1
rol 1
▁rumeurs 1
▁passait 1
▁fiscalité 1
▁progressé 1
▁ration 1
▁87 1
▁djihad 1
▁fact 1
déo 1
actes 1
▁décomp 1
▁reconnus 1
▁lent 1
▁barbecue 1
▁associées 1
très 1
▁SS 1
eto 1
mbles 1
ouches 1
▁fondamentales 1
65 1
▁OB 1
▁von 1
▁grecque 1
▁aggra 1
▁fabricants 1
▁restée 1
amel 1
▁solidaire 1
▁endomm 1
▁décors 1
▁exclusif 1
▁immédiat 1
tuaire 1
▁Ayant 1
rui 1
,... 1
▁venez 1
objets 1
▁fuir 1
endo 1
▁BM 1
▁Oh 1
gies 1
oudite 1
élite 1
▁pleins 1
▁inév 1
envis 1
▁transmet 1
▁Républic 1
.). 1
obus 1
gas 1
▁stagi 1
▁Mondial 1
▁immeuble 1
▁méditerrané 1
èlent 1
▁Quelque 1
▁prêtres 1
▁bos 1
▁semblable 1
▁hâte 1
▁protégé 1
quier 1
▁constructeurs 1
▁réflexions 1
▁infec 1
▁Free 1
▁45, 1
▁ailes 1
▁Ga 1
Comment 1
▁Cant 1
isson 1
▁inclut 1
hop 1
▁irrég 1
ext 1
▁relancer 1
amende 1
▁cac 1
medicaux 1
▁honneur 1
▁Cours 1
▁civiles 1
▁certification 1
▁jum 1
▁fal 1
▁its 1
▁raccour 1
ITRE 1
▁potable 1
▁RDVmedicaux 1
▁12. 1
▁confection 1
▁ambition 1
▁recueillir 1
MM 1
COM 1
▁Made 1
élo 1
▁Indi 1
▁Maire 1
▁orange 1
▁pèse 1
▁soigneusement 1
jug 1
▁défenseurs 1
▁prov 1
USSI 1
▁VOUS 1
▁consommer 1
▁contestation 1
▁delà 1
investir 1
▁typique 1
▁allée 1
▁hospitalier 1
▁1980, 1
▁orientale 1
▁opportunités 1
uez 1
sidérant 1
▁servant 1
enaire 1
▁relance 1
▁parcourir 1
ypes 1
▁dégage 1
▁supermar 1
▁extension 1
▁modernisation 1
▁renouvelables 1
▁Prince 1
▁silenci 1
▁Versailles 1
▁Soyez 1
▁CV 1
▁détriment 1
▁revendications 1
rimées 1
▁spécialisées 1
ageux 1
▁architectur 1
▁cherché 1
illement 1
▁chats 1
ank 1
▁solaires 1
▁céréales 1
▁limitées 1
▁bot 1
rure 1
▁équipés 1
▁Ze 1
▁poursuivant 1
zer 1
▁dirait 1
▁nage 1
argu 1
▁rival 1
▁éli 1
▁emblé 1
▁plongée 1
acé 1
▁partant 1
▁Moz 1
▁91 1
▁tremp 1
IIe 1
habitu 1
▁2,5 1
▁héber 1
▁régulier 1
▁hiérarchie 1
▁VTT 1
abilis 1
▁détient 1
▁libéré 1
▁formula 1
onciation 1
Di 1
▁Philipp 1
ily 1
▁croient 1
▁guider 1
▁Claire 1
Comté 1
▁mono 1
amendement 1
siers 1
▁leçon 1
mons 1
cra 1
▁boulanger 1
▁QUI 1
▁Pu 1
weet 1
▁prenait 1
ultes 1
vois 1
▁ressource 1
▁poil 1
▁foulée 1
▁unes 1
▁soigner 1
relle 1
▁Hi 1
Avec 1
▁Steve 1
▁illustre 1
ridge 1
▁Franco 1
▁abrite 1
▁souhaitons 1
▁attrib 1
▁amendements 1
▁IR 1
▁Poin 1
▁transporter 1
Bl 1
▁relief 1
▁tolérance 1
immeuble 1
▁cylin 1
▁versement 1
▁cardiaque 1
▁faillite 1
rô 1
▁ondes 1
▁UMP 1
▁nuages 1
▁souplesse 1
▁Poutine 1
▁arrondissement 1
▁spons 1
ergence 1
cieuses 1
/199 1
▁défauts 1
▁caché 1
▁donnait 1
▁débutants 1
▁Pâ 1
▁chantiers 1
écrit 1
▁réagi 1
accepter 1
▁COL 1
▁1987 1
▁XXe 1
▁Android 1
▁intéresse 1
▁carn 1
riche 1
▁March 1
▁Chi 1
▁Sommaire 1
▁plume 1
▁absorb 1
▁ridi 1
▁subit 1
▁milit 1
▁mortalité 1
▁discré 1
▁soldat 1
▁rachat 1
▁intégrés 1
▁SI 1
▁Ta 1
veillance 1
▁légale 1
▁déchi 1
▁descendre 1
▁dress 1
oper 1
MAN 1
CP 1
▁97 1
disant 1
▁enseignant 1
région 1
▁Chicago 1
ids 1
▁survivre 1
ogo 1
▁Sem 1
CTION 1
▁FON 1
▁visées 1
▁afficher 1
▁stupé 1
allon 1
▁approprié 1
▁choisissez 1
▁compatri 1
lants 1
▁compositeur 1
▁Glob 1
2). 1
▁prouve 1
▁félicite 1
▁Pot 1
▁canc 1
▁Québécois 1
▁pneu 1
▁inconnu 1
▁GEN 1
▁kit 1
encad 1
▁aspi 1
▁Irlande 1
▁gang 1
3), 1
▁religions 1
sées 1
▁Nik 1
▁annuels 1
▁conquête 1
ogue 1
▁récits 1
▁fabrique 1
▁Orig 1
▁Institu 1
▁randonnées 1
▁statue 1
▁théorique 1
▁Wood 1
▁effective 1
NP 1
sés 1
▁sere 1
▁autorise 1
▁transaction 1
dép 1
ife 1
▁pis 1
▁Fal 1
▁fixés 1
arin 1
▁délégués 1
▁ingénieurs 1
▁discret 1
▁uk 1
attends 1
▁renvoie 1
URS 1
ustin 1
win 1
▁assassin 1
▁barrage 1
▁cahier 1
▁19, 1
▁fourniture 1
balle 1
enjeu 1
▁sauter 1
ORD 1
▁Liège 1
▁pérenn 1
▁AVEC 1
▁désespé 1
▁BE 1
▁définitif 1
▁tén 1
▁North 1
▁périmètre 1
▁noctur 1
médiaires 1
▁départs 1
▁célébrer 1
▁Napoléon 1
▁Thi 1
▁inoubli 1
▁refait 1
▁mètre 1
▁phare 1
▁terrestre 1
▁incendi 1
▁répondant 1
▁séduire 1
▁ligue 1
▁paraly 1
▁redéc 1
▁passionnés 1
▁pneus 1
pez 1
▁offrons 1
▁tempête 1
▁pèler 1
▁Do 1
▁vint 1
▁déposée 1
▁Cah 1
▁demandée 1
Elysée 1
▁attiré 1
▁collectifs 1
ulés 1
▁féc 1
édifice 1
infrastructure 1
▁pénét 1
▁Désormais 1
quage 1
▁proprement 1
tics 1
excellence 1
▁Péri 1
▁constructions 1
▁retiré 1
actuel 1
taire 1
▁visionn 1
culture 1
olation 1
▁publicitaires 1
CT 1
▁dévoile 1
▁résultant 1
▁dioc 1
▁champignons 1
▁armé 1
▁Ko 1
▁Laisser 1
59 1
ébécoise 1
▁libéraux 1
ims 1
▁intégration 1
leurs 1
▁médicales 1
▁Christine 1
vey 1
agglomération 1
intégralité 1
▁Times 1
avions 1
▁volon 1
▁couronne 1
▁sauvetage 1
uies 1
▁jolies 1
▁pédagogiques 1
reb 1
▁espérant 1
▁identiques 1
▁Européenne 1
▁espoirs 1
DU 1
ladi 1
▁blé 1
▁élaborer 1
oing 1
obi 1
alertes 1
field 1
▁vel 1
▁apportent 1
/12 1
ANG 1
▁ml 1
▁inspec 1
▁80% 1
▁pensions 1
▁misère 1
▁légitimité 1
▁anonyme 1
▁originaux 1
▁chaussée 1
▁Kir 1
▁dira 1
▁reviend 1
▁ste 1
▁assurés 1
▁engager 1
▁planche 1
▁assass 1
▁graphiques 1
▁ensole 1
ierie 1
67 1
outils 1
uten 1
▁juif 1
ciper 1
▁lieutenant 1
ditation 1
intensité 1
▁bancs 1
▁God 1
▁adapter 1
trois 1
▁tranches 1
▁développée 1
▁Stratég 1
ônes 1
uaire 1
▁Sat 1
▁syrien 1
▁miss 1
▁stages 1
▁dégust 1
▁entourage 1
▁embau 1
éry 1
▁réfrigérateur 1
▁Office 1
▁externes 1
▁Dum 1
enchon 1
▁causé 1
▁Sel 1
▁laboratoires 1
Laurent 1
▁Demandez 1
▁tron 1
▁exhaus 1
Her 1
prof 1
▁Pyrénées 1
▁accorde 1
▁tailles 1
.3 1
▁extrém 1
▁Sony 1
▁Dix 1
▁foie 1
utilité 1
▁curiosité 1
▁établit 1
AE 1
assassin 1
Arc 1
sionnaire 1
aurai 1
▁Florence 1
▁disputer 1
istres 1
▁Bibliothèque 1
illard 1
▁Ir 1
▁Juan 1
▁Aide 1
▁'' 1
▁révolte 1
▁détaillé 1
▁déçu 1
▁sécurisé 1
▁caméras 1
gouvernement 1
attitude 1
▁semblables 1
▁kilos 1
aissant 1
▁BCE 1
▁Bad 1
▁cool 1
▁Stand 1
▁Normandie 1
▁accomplis 1
graph 1
▁Cameroun 1
▁comptabilité 1
sung 1
▁obligatoires 1
athan 1
▁filtre 1
▁envoyés 1
▁pép 1
▁DIS 1
▁Lee 1
▁MS 1
▁office 1
▁1986 1
▁conformes 1
▁municipalités 1
▁surv 1
ajoute 1
▁costumes 1
▁Dist 1
▁lev 1
▁suscité 1
▁bab 1
ated 1
instrument 1
▁départementale 1
atom 1
▁Territ 1
Col 1
inscri 1
ii 1
▁71 1
▁Appar 1
timi 1
adresser 1
▁privilégié 1
▁bec 1
oman 1
▁répercussions 1
▁délégations 1
▁réductions 1
DT 1
▁cliquer 1
▁moulin 1
▁originales 1
anais 1
▁suspendu 1
▁classification 1
▁sessions 1
▁vot 1
▁ambitions 1
▁téléphonique 1
▁grandeur 1
AIS 1
▁diplôm 1
▁Thaï 1
▁Françoise 1
▁composantes 1
▁Mons 1
-17 1
▁Chant 1
▁flè 1
▁fidélité 1
▁82 1
fils 1
▁rouler 1
▁pertinence 1
▁essaie 1
Paris 1
▁spécifiquement 1
▁frein 1
▁condamnés 1
kov 1
éline 1
▁74 1
▁convenu 1
agen 1
▁24, 1
annon 1
▁Leon 1
▁identifié 1
▁Mouvement 1
▁sensibiliser 1
▁Champagne 1
▁fraîcheur 1
enay 1
rouille 1
▁restés 1
hyp 1
▁group 1
▁rentabilité 1
▁Hist 1
▁grandement 1
▁prioritaire 1
▁incendie 1
▁écriv 1
issance 1
▁réaliste 1
▁panoram 1
▁inscrite 1
▁réservations 1
ovi 1
▁réclame 1
▁adresses 1
émergence 1
▁Forces 1
▁Dor 1
▁Mettre 1
etti 1
▁hon 1
▁Version 1
▁devoirs 1
▁réglementaires 1
jeuner 1
▁tru 1
▁Charlie 1
▁"" 1
▁Libération 1
▁pilotage 1
▁Gri 1
▁adressée 1
▁tol 1
▁finition 1
▁nostal 1
attribution 1
ratoire 1
▁biologiques 1
▁incons 1
▁Idéal 1
empereur 1
▁pensait 1
54 1
▁guise 1
▁atteints 1
▁géomét 1
▁littéralement 1
▁canon 1
▁DR 1
▁recommandons 1
élande 1
▁prospé 1
▁romantique 1
peti 1
▁Premières 1
chef 1
▁confond 1
▁Compagnie 1
Envir 1
architecte 1
▁connaitre 1
▁protégés 1
▁obstacle 1
▁sénateur 1
▁narra 1
▁renvoi 1
▁paysans 1
▁manufact 1
▁pouces 1
▁03.81. 1
▁Fourn 1
teste 1
▁partagée 1
▁monast 1
▁Boy 1
▁considérées 1
viers 1
Av 1
▁tranquill 1
▁margin 1
▁Gaulle 1
▁glisser 1
▁opus 1
▁habite 1
▁6- 1
▁Hub 1
▁volontiers 1
▁étoile 1
▁GPS 1
ceaux 1
▁mandats 1
▁Duc 1
êches 1
onnière 1
12. 1
UCTION 1
▁intemp 1
▁dessinée 1
fre 1
▁had 1
▁ambitieux 1
▁feuillet 1
▁dépression 1
▁aval 1
▁popularité 1
▁Dijon 1
esté 1
tination 1
▁répétition 1
▁folk 1
▁adressé 1
▁Européens 1
▁distingu 1
▁adoptées 1
▁favori 1
▁utilisez 1
oyons 1
eli 1
▁allaient 1
prud 1
ôte 1
▁coff 1
▁Cité 1
▁pâtes 1
▁PLUS 1
TIV 1
quaient 1
▁73 1
▁SM 1
hai 1
▁bous 1
eting 1
▁électro 1
▁PUB 1
▁affaib 1
▁Mike 1
▁caisses 1
▁immeubles 1
▁minorité 1
ercy 1
▁gram 1
NI 1
▁partielle 1
▁vieillissement 1
▁1991, 1
astes 1
▁Seule 1
adopter 1
▁diplomatique 1
▁prodi 1
▁enseignements 1
▁garantis 1
▁repli 1
▁posséder 1
▁traversée 1
aret 1
évac 1
▁intérieurs 1
▁Franck 1
▁(- 1
▁particularité 1
▁manipulation 1
arth 1
anque 1
▁royal 1
▁cé 1
ancouver 1
▁soumises 1
▁Clinton 1
▁challenge 1
▁justifie 1
ternité 1
▁entente 1
▁Proc 1
▁urgence 1
▁hein 1
pedia 1
▁FI 1
▁spatiale 1
▁améliorations 1
▁métropol 1
▁bibli 1
zième 1
▁Section 1
▁certitude 1
▁déployés 1
▁passionné 1
échantill 1
▁mutuelle 1
lerc 1
▁Gene 1
▁hété 1
ERE 1
pom 1
▁étudie 1
▁Conformément 1
▁conscient 1
pport 1
▁pli 1
▁attendus 1
inière 1
▁manières 1
▁intéressées 1
▁générer 1
▁rétablir 1
▁orientation 1
rass 1
▁réno 1
OIRE 1
▁:. 1
▁chapeau 1
▁Bush 1
estations 1
▁successeur 1
annulation 1
▁bulletin 1
▁maintient 1
▁biodiversité 1
orges 1
▁fierté 1
▁FMI 1
▁paie 1
optimis 1
1). 1
▁intéressantes 1
▁continuera 1
▁ingénieur 1
▁profondes 1
arbre 1
▁variétés 1
▁fournissent 1
cuit 1
▁payés 1
▁valorisation 1
▁autorisée 1
roirs 1
57 1
▁présentera 1
▁POL 1
▁veuillez 1
▁Bret 1
▁Profes 1
▁remédi 1
▁Anti 1
▁spécialité 1
▁APP 1
▁découvrez 1
▁interdite 1
▁explorer 1
▁polyvalente 1
▁architecture 1
▁salade 1
▁fines 1
▁ES 1
▁CONSEIL 1
▁mena 1
Imp 1
▁hur 1
élément 1
▁poétique 1
▁sexuels 1
tisée 1
▁décident 1
Inter 1
▁bric 1
▁pluri 1
ouillard 1
▁Bank 1
▁Prise 1
▁annoncer 1
▁ordonnance 1
▁contam 1
▁descrip 1
▁négative 1
fie 1
▁témoignent 1
œuf 1
▁chapitres 1
▁Som 1
▁Sach 1
▁projec 1
▁Sélection 1
▁Transports 1
▁majoritairement 1
Lors 1
clav 1
▁Raf 1
▁sand 1
xic 1
▁raci 1
éries 1
▁opérationnelle 1
▁propagande 1
▁perdue 1
▁calculs 1
vième 1
▁dettes 1
▁18, 1
fem 1
histor 1
▁dynamiques 1
▁saveurs 1
intégrité 1
▁Spe 1
leine 1
▁nouveauté 1
gnation 1
▁comportant 1
sectes 1
four 1
▁fière 1
▁conçus 1
▁AUSSI 1
ressant 1
▁Pér 1
▁bars 1
▁expul 1
▁fibre 1
▁chaise 1
TU 1
▁courtes 1
arios 1
▁conservateurs 1
▁tantôt 1
tilité 1
▁Simple 1
▁puissances 1
▁juive 1
▁étend 1
▁84 1
tex 1
fonction 1
ompé 1
▁profils 1
▁Tony 1
▁garn 1
▁roue 1
cio 1
opportunité 1
inées 1
▁Magn 1
▁foss 1
▁optimale 1
Que 1
ATS 1
▁réci 1
grand 1
aleries 1
hygiène 1
▁Figaro 1
▁débord 1
▁édité 1
exercer 1
▁suites 1
Esprit 1
▁Cond 1
aîtra 1
elly 1
▁matériau 1
▁hybri 1
imagine 1
bel 1
▁ye 1
Quand 1
▁désignation 1
élie 1
▁quator 1
▁Tableau 1
▁côt 1
▁cardin 1
▁traject 1
▁contraste 1
▁ukrain 1
▁étendue 1
▁pit 1
▁Jou 1
▁réglementaire 1
▁Blo 1
▁vulnérables 1
▁reconstitu 1
▁tram 1
▁Mélenchon 1
▁fournie 1
fiques 1
isant 1
inson 1
▁incor 1
▁comprise 1
adémie 1
▁Rand 1
▁Ford 1
▁accueillis 1
▁segment 1
lèvements 1
▁gouvernementale 1
▁COMMENT 1
▁tragé 1
▁voulant 1
▁refroid 1
▁précisant 1
▁Rach 1
▁gestionnaires 1
▁40% 1
ook 1
▁permettait 1
▁laine 1
▁sœurs 1
▁éventail 1
▁progressive 1
▁dispers 1
▁violents 1
▁proviennent 1
▁Anth 1
▁détendre 1
PAR 1
anterie 1
▁incorp 1
▁Kit 1
▁Collège 1
▁engagées 1
▁rappelant 1
▁urbains 1
marès 1
▁quai 1
▁clandes 1
▁Kong 1
▁protagon 1
▁Maz 1
▁coureurs 1
soci 1
▁postu 1
tico 1
▁employeur 1
▁will 1
▁GES 1
▁simultanément 1
▁assumer 1
économique 1
▁amoureuse 1
▁intéressants 1
▁enfer 1
▁formules 1
onna 1
afficher 1
▁Kevin 1
auth 1
▁Communication 1
▁impliqués 1
▁Palestiniens 1
Armée 1
▁Souvent 1
▁tick 1
▁copains 1
ateau 1
▁Lit 1
attentat 1
▁visuel 1
▁83 1
gles 1
▁œufs 1
-1, 1
▁gentil 1
▁bond 1
▁cave 1
affichage 1
▁Proche 1
▁cite 1
▁laiti 1
olement 1
▁atmosphère 1
rairies 1
gnés 1
acquérir 1
▁Description 1
unnel 1
isprud 1
▁excès 1
nale 1
occurrence 1
▁accueillant 1
▁fiches 1
oisse 1
▁voyait 1
▁princesse 1
▁Garantie 1
▁sage 1
▁acquise 1
▁exister 1
▁insol 1
DH 1
▁vélos 1
▁séparer 1
pins 1
étudier 1
▁rajouter 1
▁confirmation 1
▁génial 1
▁manne 1
▁baiser 1
▁Cav 1
▁fonctionnel 1
▁Iran 1
arte 1
▁occidentaux 1
▁coïn 1
▁fondement 1
▁lisse 1
oncourt 1
▁suggestions 1
▁She 1
▁porc 1
èves 1
▁porteur 1
▁paragraphes 1
bois 1
uma 1
cor 1
abbaye 1
lein 1
▁robot 1
▁manifester 1
ésar 1
▁gestionnaire 1
▁marchands 1
85 1
▁Bau 1
▁dépense 1
sime 1
▁accompagnés 1
▁LIRE 1
▁minimale 1
▁Jardin 1
▁fiscaux 1
▁colonel 1
ustration 1
▁apprentissage 1
▁aérop 1
▁concentre 1
ulent 1
enu 1
alg 1
▁fêter 1
OTAN 1
présid 1
▁lacs 1
galement 1
▁connexes 1
▁fédéraux 1
▁sensiblement 1
▁Quanti 1
▁signalé 1
Ces 1
cadre 1
▁enjeu 1
allèlement 1
culaires 1
▁single 1
▁respecté 1
▁craindre 1
Ils 1
ratif 1
▁téléspect 1
lages 1
▁Charl 1
▁1985 1
▁attaché 1
▁indépendance 1
▁préférable 1
ANC 1
igéri 1
VI 1
▁crâ 1
▁désastre 1
▁réalités 1
▁fermés 1
▁directs 1
▁dys 1
▁Dup 1
alo 1
▁cerc 1
▁coque 1
▁intermédiaires 1
▁renforcé 1
aron 1
▁soph 1
urrection 1
▁Ség 1
▁reproduire 1
▁poule 1
▁déroulera 1
Hen 1
66 1
▁Ressources 1
▁Rub 1
assez 1
▁Ton 1
▁collég 1
▁exposants 1
agère 1
▁tristes 1
▁retrouvés 1
▁infractions 1
▁Vancouver 1
accroître 1
▁liby 1
▁indiff 1
orez 1
▁huitième 1
▁alcool 1
▁assurances 1
▁restructuration 1
▁immun 1
▁parait 1
▁dangereuses 1
▁93 1
"... 1
▁Sont 1
aillon 1
herbe 1
▁Fred 1
▁licences 1
▁résident 1
▁antérieure 1
▁BL 1
▁écriture 1
4), 1
▁observateurs 1
▁trouvant 1
asa 1
▁poches 1
DL 1
▁Euros 1
atou 1
mor 1
▁plastiques 1
▁athlètes 1
▁Modi 1
▁Résultats 1
Ed 1
▁relèvent 1
▁destinations 1
▁Achet 1
▁footballe 1
▁démocrate 1
▁Tay 1
▁horaire 1
▁eBay 1
▁reportage 1
▁amener 1
▁fluide 1
▁opposants 1
immobilier 1
▁Stephen 1
▁réchauffement 1
vette 1
▁PO 1
▁statuts 1
▁marié 1
ponsable 1
oyant 1
▁blogs 1
▁enregistrée 1
▁métaph 1
bou 1
animaux 1
expansion 1
aré 1
▁Publié 1
mad 1
phém 1
▁alliance 1
anning 1
▁iPhone 1
ria 1
▁accru 1
▁Caraï 1
▁célib 1
érait 1
▁adoré 1
▁Location 1
▁GT 1
▁din 1
chets 1
▁chaises 1
ally 1
▁naître 1
octroi 1
écouter 1
▁Rappelons 1
▁cherchez 1
▁belges 1
▁refroidir 1
▁gentilles 1
tionnés 1
▁chalet 1
cheur 1
timent 1
▁québécoise 1
▁jouets 1
chants 1
lène 1
ignan 1
▁tunis 1
▁boîtes 1
▁explication 1
alisations 1
▁Profitez 1
▁humide 1
égraph 1
amines 1
▁Scott 1
▁routière 1
aim 1
pée 1
▁musicien 1
▁Prenez 1
▁échanger 1
▁claires 1
▁variées 1
▁capitalisme 1
ristian 1
▁couture 1
▁siff 1
▁coupes 1
▁brevets 1
▁trouvaient 1
douard 1
▁181 1
▁cuillère 1
▁Chili 1
▁interlocu 1
tudes 1
▁exécution 1
▁caractérise 1
▁Abdel 1
▁rembourser 1
▁problématiques 1
avent 1
▁décisif 1
▁over 1
▁préval 1
▁divorce 1
ernier 1
▁faille 1
▁und 1
▁Julie 1
▁panneau 1
▁ec 1
ITES 1
▁séquences 1
▁noyau 1
ulgation 1
illis 1
.4 1
89 1
▁ponts 1
▁liné 1
▁palestinien 1
aïd 1
OMS 1
checs 1
▁Pales 1
accueillir 1
explosion 1
▁Prob 1
▁pard 1
▁dotée 1
▁planches 1
▁camions 1
52 1
▁impressionnant 1
otiques 1
▁Hervé 1
▁enlever 1
▁réguliers 1
▁slog 1
▁cockt 1
abou 1
▁lourdes 1
▁circulaire 1
utent 1
▁avancés 1
▁modifiant 1
▁commandé 1
▁admirer 1
▁formés 1
▁notification 1
▁appropriée 1
▁séparés 1
illages 1
ilise 1
▁détéri 1
▁Bag 1
▁détection 1
lever 1
odo 1
mph 1
▁chants 1
▁IL 1
/11 1
▁Renaud 1
▁prenne 1
▁Rh 1
▁affiché 1
▁dévoilé 1
PG 1
▁Caen 1
Ordre 1
▁atouts 1
▁cinéaste 1
▁sévère 1
▁commenté 1
vra 1
▁représentée 1
émis 1
chest 1
▁Presse 1
▁uniforme 1
▁angle 1
▁job 1
▁Cercle 1
▁game 1
cas 1
▁financé 1
▁paci 1
▁die 1
ns 1
▁standards 1
achet 1
▁bê 1
▁hautement 1
indique 1
▁africain 1
▁Moham 1
▁reporter 1
Tu 1
▁impecc 1
▁pique 1
▁apportées 1
▁mystérieux 1
geance 1
▁mondiales 1
▁réclamer 1
exploration 1
?? 1
prix 1
nest 1
Val 1
Irak 1
Seine 1
▁assu 1
cesseurs 1
▁Sah 1
assainissement 1
▁Amendement 1
alisant 1
▁délicat 1
▁publicitaire 1
hésite 1
▁leadership 1
▁Vau 1
aile 1
▁back 1
▁duel 1
appuyant 1
▁inscri 1
▁Brown 1
3). 1
▁retrouvée 1
▁Carte 1
▁Police 1
▁apparence 1
▁détenu 1
▁composent 1
▁Actualités 1
▁massage 1
fia 1
▁Harry 1
▁Corp 1
▁trône 1
eral 1
▁patrons 1
▁péril 1
▁humour 1
▁manager 1
▁débarrasser 1
▁islamistes 1
effond 1
afric 1
otype 1
ilisations 1
▁conjonc 1
▁Fu 1
▁signale 1
▁imposée 1
▁saine 1
▁multic 1
TIS 1
▁frapper 1
ovie 1
▁Manchester 1
▁pénit 1
▁Fire 1
▁AB 1
▁Entrée 1
▁régal 1
▁rédigé 1
bar 1
abus 1
tar 1
▁81 1
▁citoyenneté 1
▁Ast 1
▁dominante 1
▁policière 1
▁Samsung 1
çà 1
▁verrez 1
▁Prop 1
▁Générale 1
▁prévision 1
▁quotidiennement 1
▁supplé 1
orama 1
▁renommée 1
▁technicien 1
▁1/2 1
endeur 1
elé 1
▁aborder 1
▁poussée 1
▁chirurgie 1
▁touches 1
▁Hugo 1
▁bébés 1
etta 1
▁CES 1
▁nommer 1
▁Initi 1
▁dessiner 1
▁souffrent 1
▁band 1
▁analystes 1
▁dévi 1
▁occupent 1
olescent 1
▁Doubs 1
▁tranquillité 1
▁Parallèlement 1
▁modules 1
aillé 1
▁négatifs 1
▁Management 1
rey 1
▁revues 1
▁té 1
▁Ts 1
▁rage 1
▁IMP 1
▁Grands 1
▁teint 1
▁créent 1
▁Bosnie 1
info 1
▁costume 1
▁approxim 1
▁récipro 1
pompiers 1
inspection 1
ring 1
▁Justin 1
ât 1
▁hôpital 1
▁trouvée 1
venant 1
▁procédés 1
▁durables 1
▁adhé 1
▁mécaniques 1
▁savoirs 1
▁struct 1
▁voulaient 1
tionnée 1
roi 1
▁Ves 1
ctionnaire 1
▁surprenant 1
▁imb 1
▁ov 1
▁seins 1
ICES 1
▁connaissait 1
▁macro 1
▁préfèrent 1
▁cordes 1
▁considérant 1
▁mince 1
▁Lot 1
▁Dommage 1
▁incident 1
▁Alsace 1
-1. 1
▁porteurs 1
▁Expl 1
▁comble 1
▁raté 1
odeur 1
▁94 1
▁attendue 1
▁rurale 1
Pad 1
▁secs 1
▁souffrir 1
▁contenter 1
▁Quantité 1
▁regards 1
▁pertinents 1
▁huiles 1
▁treize 1
▁gigantes 1
▁inno 1
ronom 1
affect 1
▁volontairement 1
▁ralentisse 1
▁douan 1
▁définie 1
▁basil 1
tio 1
olition 1
tillerie 1
▁diplômés 1
▁Beaux 1
▁verb 1
▁PRÉ 1
êne 1
ums 1
cour 1
▁Cle 1
▁fondre 1
▁contract 1
timité 1
▁automobil 1
intéresser 1
▁Autriche 1
▁publiquement 1
▁Gall 1
▁Amé 1
▁bid 1
▁composer 1
see 1
▁éthique 1
fiées 1
étendre 1
▁jurisprud 1
▁maintenu 1
▁Berg 1
▁sortis 1
ski 1
▁détourn 1
onnerie 1
▁lumières 1
▁Adresse 1
anime 1
▁bouill 1
▁Haï 1
édant 1
▁prêter 1
illées 1
▁régiment 1
dée 1
▁attén 1
▁(3) 1
▁plonger 1
▁percent 1
▁susciter 1
▁amène 1
▁dérouler 1
▁duré 1
UP 1
▁Bis 1
▁empris 1
▁neutre 1
ilie 1
▁hebdomadaire 1
taient 1
▁appropriées 1
▁folle 1
paration 1
▁Photo 1
▁sentent 1
▁chauffer 1
▁hame 1
Zélande 1
▁White 1
▁consolidation 1
▁restitu 1
▁équival 1
▁rejoign 1
▁symboles 1
mire 1
▁még 1
▁Montb 1
aïque 1
kes 1
▁Bén 1
épaisseur 1
▁dirais 1
▁Nation 1
▁scolarité 1
▁menacé 1
ologiste 1
▁perpétu 1
▁1989, 1
▁définies 1
▁violations 1
▁travailleur 1
▁chaos 1
▁vaisselle 1
▁humanitaires 1
▁maux 1
▁reviennent 1
▁fausses 1
▁aig 1
▁volets 1
▁déguis 1
heures 1
▁Guinée 1
Environnement 1
Ottawa 1
▁épais 1
▁maïs 1
▁Possibilité 1
▁qualifiée 1
▁obs 1
▁Vladi 1
▁brigade 1
▁appliquées 1
▁fondateurs 1
▁prestigieux 1
▁compensation 1
▁toilette 1
ATE 1
▁21, 1
▁automobiles 1
MES 1
▁validation 1
▁invitation 1
▁1984 1
-15 1
hôte 1
▁qualit 1
▁Bleus 1
▁multilatéra 1
68 1
▁israélien 1
▁vitesses 1
▁mensuel 1
aig 1
ctive 1
▁Statis 1
▁TG 1
OCDE 1
▁défendu 1
▁miracle 1
vons 1
▁Mieux 1
▁Cou 1
▁Sept 1
yt 1
▁Blue 1
oko 1
orelle 1
APP 1
OSI 1
▁restes 1
▁bibliothèques 1
▁mental 1
▁calculer 1
▁consacrés 1
EB 1
▁généreux 1
imagination 1
▁visages 1
orith 1
▁vêtement 1
▁poèmes 1
▁courbe 1
▁contrepartie 1
▁silhou 1
▁maturité 1
ovine 1
aissait 1
▁inflig 1
▁fous 1
▁confrontation 1
▁Tib 1
mières 1
▁héb 1
▁Jud 1
▁Fonction 1
▁recherché 1
▁jette 1
▁blocs 1
onnette 1
finale 1
Améric 1
▁militant 1
opérateur 1
oreille 1
▁Combien 1
▁urbaines 1
▁commod 1
GC 1
▁dues 1
▁Lut 1
▁DJ 1
estement 1
▁pantalon 1
▁napp 1
▁diplomatie 1
▁fermes 1
chaussée 1
▁stéré 1
▁hypothèse 1
orf 1
enh 1
▁bleus 1
▁airs 1
artistes 1
▁Uni 1
▁triple 1
▁tragique 1
▁max 1
Occident 1
ppé 1
▁prétendre 1
AUT 1
▁remport 1
onger 1
▁after 1
▁consta 1
États 1
▁poub 1
▁sculpture 1
▁charmant 1
▁techniciens 1
▁coopé 1
▁spirituel 1
▁néerlandais 1
▁superbes 1
assaut 1
arbitre 1
▁reproche 1
▁cuivre 1
Man 1
▁confrontés 1
▁conjointement 1
As 1
abis 1
enqu 1
▁ravis 1
visionn 1
▁muscles 1
▁NOU 1
▁Conditions 1
▁Ap 1
▁évite 1
▁égalité 1
▁variation 1
▁Sommet 1
▁ludique 1
▁sentier 1
▁culp 1
▁épaules 1
▁las 1
▁Fontaine 1
▁devenant 1
Loire 1
Pe 1
idéal 1
▁indice 1
▁interprète 1
▁concentré 1
▁engend 1
▁décentra 1
▁astuces 1
drat 1
eusement 1
▁célébré 1
▁Médec 1
▁tribune 1
▁naï 1
endaire 1
▁MER 1
▁salué 1
lay 1
▁agréables 1
échanges 1
ômé 1
olée 1
▁domiciliés 1
rane 1
▁majeures 1
▁atout 1
▁sagesse 1
▁considérables 1
-11 1
atisé 1
▁prolonger 1
▁saga 1
abulaire 1
▁Identif 1
▁prudence 1
▁renf 1
▁Pacte 1
▁estiv 1
▁mait 1
André 1
lywood 1
▁baissé 1
entrepreneur 1
": 1
Ri 1
▁lâcher 1
▁Jonathan 1
▁estimée 1
iciens 1
▁Arch 1
▁FF 1
ICATION 1
▁écosyst 1
▁Gratu 1
▁soulignant 1
▁multimédi 1
▁collectives 1
▁sulf 1
▁dévas 1
cembre 1
eme 1
▁coffre 1
▁bad 1
▁taper 1
IEL 1
▁gardes 1
▁palmarès 1
aule 1
▁bouge 1
▁appréh 1
▁Consultez 1
Autorité 1
▁hard 1
▁parlait 1
▁spacieux 1
etz 1
acceptation 1
interface 1
▁définis 1
enseur 1
!) 1
▁remarques 1
hl 1
▁carrément 1
▁râ 1
▁Ensemble 1
urbanisme 1
▁guidée 1
acide 1
institut 1
▁Francisco 1
▁validité 1
▁préliminaire 1
▁meeting 1
▁répéter 1
Alors 1
ried 1
▁comporter 1
culer 1
▁organique 1
▁flag 1
▁Fiche 1
▁tranquillement 1
omique 1
▁EDF 1
▁apparu 1
▁psychologie 1
▁représentés 1
▁précipitations 1
▁réparer 1
▁exploiter 1
▁scénarios 1
▁lumineuse 1
▁paradox 1
enseigne 1
oués 1
▁Bran 1
▁2018. 1
ando 1
▁modernité 1
▁Post 1
▁dames 1
umés 1
uils 1
▁TECH 1
▁SOCI 1
▁contemporains 1
CON 1
nal 1
▁compenser 1
▁Traitement 1
▁coéquipiers 1
inten 1
▁romaine 1
▁spécialités 1
▁clari 1
▁start 1
▁bizarre 1
▁détermine 1
▁Ric 1
▁extrêmes 1
▁Jour 1
▁rencontrent 1
bien 1
▁enregistrer 1
▁Temps 1
▁5% 1
▁tirés 1
opping 1
vaient 1
fred 1
UNES 1
démie 1
▁Bible 1
Notre 1
▁tablettes 1
meaux 1
sept 1
▁moelle 1
▁Avez 1
▁rassurer 1
▁Consult 1
urées 1
usta 1
ués 1
▁recourir 1
Déc 1
▁versé 1
▁funéra 1
vices 1
▁atmosph 1
▁creux 1
▁remédier 1
▁constant 1
équipage 1
entir 1
▁Ari 1
arbit 1
Saône 1
▁suscite 1
urn 1
▁précoce 1
versée 1
▁carnet 1
eta 1
rel 1
▁prolongation 1
▁Louise 1
▁séduit 1
olore 1
▁physiquement 1
▁22, 1
agrément 1
▁AUT 1
▁0,0 1
▁doctrine 1
▁expose 1
▁couss 1
▁enceintes 1
▁Sorti 1
▁impacts 1
▁ajoutez 1
▁vieil 1
▁législatif 1
▁prioritaires 1
▁Détails 1
▁désarmement 1
▁littéraires 1
▁posées 1
ULT 1
▁diminue 1
▁Vieux 1
▁siens 1
▁malheur 1
▁préservation 1
▁israélienne 1
auront 1
▁questionnaire 1
▁requises 1
▁menés 1
dieu 1
▁raconté 1
▁Juin 1
lia 1
harmonie 1
▁Costa 1
▁1960 1
ouleur 1
▁péné 1
▁accuse 1
osi 1
Ecole 1
▁pensons 1
▁potentiellement 1
▁génoci 1
▁sursis 1
inquiète 1
▁spe 1
▁Km 1
96 1
▁forums 1
▁assiste 1
▁roulant 1
GB 1
etter 1
accorder 1
▁détr 1
▁gorge 1
▁Clermont 1
▁Sen 1
▁Java 1
▁développeurs 1
▁diffuse 1
▁maquillage 1
▁dést 1
▁légers 1
américain 1
▁mineur 1
économiser 1
▁tré 1
▁viole 1
gardez 1
industri 1
▁Caraïbes 1
▁chancel 1
issaient 1
▁ressortissants 1
▁EUROPAGES 1
onges 1
▁éventuel 1
▁inclure 1
▁contradict 1
▁() 1
▁légales 1
▁révèlent 1
▁Vierge 1
▁propice 1
ulant 1
▁bâtir 1
ettement 1
▁1970, 1
▁Jim 1
▁Ukraine 1
▁échantillons 1
▁harcèlement 1
▁dynamisme 1
adolesc 1
oriété 1
▁couverte 1
▁Law 1
DP 1
▁blogue 1
▁Aper 1
') 1
swick 1
Sh 1
▁Camille 1
▁rencontrés 1
▁Venise 1
▁casserole 1
expédition 1
▁sculpt 1
▁basses 1
▁accomplir 1
▁animée 1
▁désire 1
▁séjours 1
▁canaux 1
▁offertes 1
uent 1
▁Type 1
▁Informations 1
adie 1
kg 1
▁vivante 1
▁Derrière 1
▁chorégraph 1
▁mythe 1
▁média 1
▁mutation 1
▁antic 1
51 1
▁rétablissement 1
▁panique 1
▁surp 1
▁Photos 1
importants 1
▁Cheval 1
▁Johnson 1
▁183 1
▁Jackson 1
▁Ty 1
▁rally 1
▁démarrer 1
▁facilite 1
▁monstre 1
▁exclusive 1
téch 1
▁malheureux 1
▁Palestine 1
▁immobiliers 1
▁retrans 1
informer 1
▁750 1
▁œil 1
▁imposées 1
▁entrain 1
▁vernis 1
cessoires 1
▁dangereuse 1
▁Action 1
▁Eur 1
▁appl 1
vet 1
▁solitude 1
▁Revue 1
▁coloris 1
▁périodique 1
▁gentillesse 1
▁rotation 1
conc 1
▁donateurs 1
▁servira 1
politique 1
▁plateformes 1
xit 1
œuvres 1
86 1
▁évoquant 1
▁Vend 1
▁allié 1
▁XIV 1
uela 1
▁pétition 1
▁corde 1
▁Organis 1
▁Pass 1
▁repérer 1
▁volcan 1
'« 1
▁générique 1
▁moléc 1
▁frigo 1
▁affirm 1
▁cotisation 1
udget 1
Gr 1
▁informés 1
bul 1
Brun 1
▁pavillon 1
humidité 1
77 1
▁fiables 1
roc 1
▁House 1
▁éducatif 1
TEN 1
estime 1
▁Carlos 1
lifération 1
▁céra 1
▁Rouen 1
érité 1
hon 1
Ge 1
▁comptant 1
kina 1
▁mante 1
-16 1
▁rénov 1
athon 1
▁bourses 1
allait 1
allemand 1
▁repartir 1
▁Fed 1
▁Étant 1
▁hélicopt 1
vais 1
ISSION 1
eneuve 1
▁profits 1
▁pizz 1
aha 1
élaborer 1
▁archi 1
▁Champions 1
anas 1
▁360 1
ologistes 1
▁Mode 1
▁roses 1
▁Dal 1
▁accusés 1
▁confirmée 1
anciens 1
▁incert 1
Arabie 1
dienne 1
horreur 1
▁portraits 1
▁messagerie 1
▁notoriété 1
▁plaine 1
notamment 1
▁lycé 1
less 1
▁Power 1
ilation 1
▁occupée 1
ANTS 1
▁palette 1
▁démocratiques 1
▁évoquer 1
▁électorales 1
▁sale 1
▁plates 1
▁Droits 1
▁héroï 1
▁Crois 1
▁vitic 1
▁Information 1
▁chaleureuse 1
▁Colle 1
▁altitude 1
▁chrom 1
▁Util 1
▁Télécharger 1
trans 1
▁éclaire 1
claves 1
▁littoral 1
▁Hans 1
outch 1
belli 1
Du 1
asy 1
▁piège 1
ossé 1
inger 1
▁chœur 1
▁désagré 1
-- 1
Aff 1
▁Soudan 1
outre 1
▁interface 1
ilien 1
▁trip 1
▁Lois 1
▁Amazon 1
▁PROF 1
▁atteintes 1
▁PDF 1
▁Romain 1
▁préser 1
▁précisions 1
bor 1
▁Business 1
▁ressortir 1
▁Maj 1
▁colonies 1
▁accum 1
▁pétroli 1
roix 1
▁SAR 1
▁rafraî 1
▁offensive 1
lou 1
well 1
▁défaill 1
Ali 1
▁Kn 1
▁Victoria 1
▁opportunité 1
▁souhaitant 1
rang 1
▁sainte 1
gènes 1
iga 1
▁bénéficiaire 1
▁énergétiques 1
chose 1
yright 1
▁souhaitait 1
▁locataires 1
çage 1
▁bic 1
▁1998. 1
pper 1
▁minuit 1
▁soutiennent 1
ety 1
▁Tab 1
▁clan 1
▁réhabilitation 1
▁stimuler 1
▁Music 1
▁Coc 1
œux 1
▁chimie 1
▁mentionne 1
▁acceptable 1
▁compagne 1
▁écologiques 1
79 1
rap 1
chron 1
établis 1
MO 1
▁hiérarch 1
▁grain 1
▁bloquer 1
▁Jen 1
▁Racing 1
DD 1
▁Hou 1
▁cure 1
▁Bienvenue 1
▁classée 1
4). 1
▁fixées 1
▁illustré 1
▁Att 1
▁Fro 1
▁mythique 1
▁McC 1
▁Midi 1
▁répéti 1
▁ki 1
▁flore 1
ouchement 1
▁Chyp 1
▁crédibilité 1
▁deuil 1
▁pend 1
▁voyons 1
▁poussière 1
▁Wikipedia 1
▁affili 1
..... 1
▁admet 1
sauf 1
orisé 1
▁saveur 1
acle 1
Marne 1
▁regardant 1
▁théories 1
cré 1
vil 1
gy 1
▁Objectif 1
▁sérén 1
accompagner 1
omé 1
▁vignes 1
▁affirmant 1
▁surmonter 1
sterdam 1
▁Céline 1
auraient 1
▁automne 1
ommand 1
soit 1
quité 1
tish 1
▁substanti 1
▁animale 1
▁essence 1
▁collis 1
▁rois 1
▁marches 1
▁gay 1
▁célébration 1
altern 1
▁rendra 1
▁cut 1
▁pseudo 1
▁Kad 1
▁coun 1
▁quan 1
origin 1
OLE 1
ilde 1
▁plancher 1
PN 1
▁innovations 1
▁RH 1
▁Temp 1
▁abandonner 1
▁respectifs 1
écologie 1
▁3000 1
menté 1
▁oign 1
▁vives 1
afé 1
▁Collec 1
autions 1
lisabeth 1
▁chroniques 1
▁REC 1
▁streaming 1
TILIS 1
appropri 1
▁vigilance 1
lish 1
▁lumin 1
appeler 1
▁sérieuse 1
▁forcer 1
▁mentionnés 1
Mari 1
▁Merkel 1
▁complicité 1
▁commente 1
▁13. 1
▁renforcée 1
▁virtuelle 1
▁exposées 1
"" 1
'. 1
▁sanc 1
▁plaid 1
▁Zi 1
▁délicate 1
entrai 1
▁3) 1
équilib 1
▁retire 1
▁exprime 1
péra 1
Fin 1
▁dits 1
▁fabriqué 1
▁natur 1
▁chèque 1
▁mariée 1
▁téléspectateurs 1
Yves 1
▁hélas 1
▁Associ 1
seill 1
▁coco 1
▁actrice 1
▁Musique 1
▁résidant 1
▁électricité 1
▁affectés 1
▁omni 1
élég 1
urgie 1
▁PAGE 1
akes 1
▁jurisprudence 1
▁plait 1
▁XVIIIe 1
urde 1
▁South 1
▁enregistrées 1
dl 1
▁révélation 1
▁catastrophes 1
▁déception 1
eac 1
▁spr 1
▁sèches 1
uscule 1
ACE 1
igence 1
▁SOL 1
▁craint 1
▁pluies 1
▁formats 1
▁audience 1
uth 1
▁Suz 1
▁vertus 1
▁souffrant 1
▁réconciliation 1
.« 1
donésie 1
ients 1
aviation 1
▁Vladimir 1
▁interpel 1
▁divisions 1
aube 1
▁rét 1
▁Jane 1
▁studios 1
▁confronté 1
opposer 1
▁violente 1
▁confortables 1
▁obtenue 1
▁comparable 1
▁évènement 1
▁touchent 1
▁menant 1
▁appartiennent 1
▁valider 1
▁€. 1
▁identifiés 1
▁Patrice 1
▁carre 1
▁dégustation 1
ken 1
▁géré 1
▁domestique 1
▁demandait 1
(1) 1
onnec 1
▁buff 1
▁Qatar 1
▁sphère 1
▁tactique 1
▁Serbie 1
▁complété 1
▁conjoncture 1
intéressé 1
▁changent 1
chim 1
éremment 1
▁fonctionnent 1
▁maternité 1
chéance 1
▁privilégier 1
▁professions 1
létisme 1
▁pencher 1
▁Boston 1
OV 1
▁Install 1
▁pénétrer 1
▁venaient 1
▁migration 1
▁spacieuse 1
ency 1
▁médiation 1
FS 1
▁pelouse 1
▁maîtresse 1
GA 1
▁Inv 1
Ma 1
▁déterminant 1
▁autrich 1
▁odeur 1
▁récré 1
▁abrit 1
▁quatorze 1
▁longuement 1
▁did 1
▁nourrit 1
▁guides 1
IGN 1
▁serons 1
▁terroir 1
▁vœux 1
▁surg 1
▁respectant 1
▁Bleu 1
▁jeté 1
▁refer 1
▁aborde 1
nait 1
▁portées 1
▁Rw 1
▁obé 1
▁confr 1
phy 1
▁tunnel 1
▁résistant 1
▁écho 1
uriers 1
oureuses 1
cript 1
▁arom 1
ENTS 1
▁lève 1
▁Chamb 1
entialité 1
europé 1
▁Maî 1
ogènes 1
▁Clé 1
▁fonctionnelle 1
agascar 1
alisent 1
▁ordinaires 1
▁inciter 1
émas 1
▁vocabulaire 1
▁Blu 1
▁Sug 1
▁disciplin 1
▁Lisbonne 1
▁domestiques 1
▁Orient 1
▁rangement 1
shirt 1
▁décoré 1
oney 1
ayez 1
▁REN 1
/03 1
emment 1
▁Fé 1
▁sérénité 1
aillard 1
esc 1
▁Stratégie 1
88 1
▁épo 1
OSSI 1
▁glisse 1
▁Cuisine 1
effectif 1
▁oe 1
▁cauche 1
▁VOTRE 1
▁émer 1
▁Clément 1
rip 1
ium 1
▁vaisseau 1
▁pts 1
▁franchi 1
obé 1
▁dominé 1
çaient 1
wards 1
▁écart 1
▁loyer 1
arienne 1
▁Leclerc 1
▁loy 1
▁dies 1
▁mondes 1
▁accompagnement 1
▁OFF 1
▁trophée 1
▁recyclage 1
accal 1
▁Fré 1
▁gouvernementaux 1
▁poup 1
▁âmes 1
▁ridicule 1
ERT 1
▁1990. 1
utilisateurs 1
▁réussie 1
▁sépare 1
▁nourr 1
▁Tandis 1
▁noble 1
▁incidents 1
▁Antonio 1
▁détecter 1
▁poursuivent 1
mpes 1
▁directions 1
ôtres 1
▁camb 1
▁cartons 1
Alle 1
unk 1
lette 1
ESSION 1
him 1
▁Sky 1
atican 1
▁protégée 1
▁Alb 1
▁Invité 1
ondu 1
▁peupl 1
onneurs 1
exagone 1
▁illim 1
▁placées 1
importantes 1
▁turc 1
coré 1
IES 1
▁CHAR 1
▁doctorat 1
▁bapt 1
▁arrête 1
▁Imag 1
Bel 1
▁Ital 1
tables 1
▁dieux 1
▁grade 1
▁unis 1
garde 1
▁Départ 1
▁emploie 1
▁mexic 1
lore 1
Ess 1
▁Toulon 1
pide 1
▁violon 1
▁Tam 1
▁pente 1
▁primes 1
▁jambe 1
▁clôt 1
interroge 1
▁déd 1
Comme 1
▁cosmé 1
▁Capital 1
pri 1
▁syrienne 1
▁approfondie 1
sep 1
accompagne 1
▁OS 1
▁quantit 1
▁hypothèses 1
▁tragédie 1
oung 1
▁imprimer 1
▁légères 1
▁délivrance 1
▁Verts 1
anat 1
▁interrogé 1
▁Fabrice 1
vaquie 1
▁irak 1
▁prémat 1
▁polonais 1
▁complets 1
emblée 1
érez 1
▁dissu 1
Dié 1
eline 1
▁sommets 1
ysique 1
garie 1
assure 1
▁loisir 1
▁magistrat 1
▁concernée 1
▁facult 1
▁Thaïlande 1
▁450 1
▁Franche 1
▁Trouvez 1
▁pertinent 1
êques 1
▁adh 1
▁rende 1
▁cycles 1
▁négligeable 1
▁corré 1
▁Blan 1
▁indési 1
▁caval 1
▁Changez 1
▁Kat 1
▁alternatives 1
intendo 1
▁éro 1
▁écrites 1
▁traversé 1
▁demandeur 1
▁Aperçu 1
abond 1
▁strict 1
isti 1
▁UR 1
▁musulmane 1
▁rayonnement 1
▁interactions 1
riens 1
tina 1
actéris 1
▁personnalisé 1
sch 1
interroger 1
▁Kosovo 1
▁accélérer 1
▁géographie 1
tissements 1
▁Pôle 1
rash 1
▁Let 1
▁FL 1
éliard 1
▁impliqué 1
▁reposant 1
rigé 1
▁Vice 1
▁gramm 1
▁Occident 1
▁bracel 1
▁tubes 1
▁retours 1
▁devrez 1
arel 1
tériel 1
▁disposant 1
Anti 1
veu 1
▁allemandes 1
▁infraction 1
▁homogène 1
▁Munich 1
▁hop 1
100 1
▁communale 1
▁vec 1
▁aperç 1
▁décharge 1
major 1
▁distances 1
▁Samuel 1
ineuses 1
▁octroy 1
NH 1
Écosse 1
▁Ryan 1
▁barrière 1
▁Arthur 1
▁romain 1
Tube 1
▁animation 1
▁Tours 1
ratoires 1
▁criminels 1
FL 1
▁aimerait 1
▁ordonné 1
▁one 1
▁lectures 1
▁séc 1
▁manquait 1
▁détaillées 1
tues 1
▁autonomes 1
tigny 1
▁this 1
Education 1
▁concession 1
▁dénom 1
▁UE 1
▁Chal 1
▁Durée 1
▁parcelles 1
▁appren 1
▁poils 1
▁poème 1
▁vraies 1
▁inédite 1
▁minéraux 1
anner 1
▁Mid 1
▁monastère 1
▁portés 1
▁Marché 1
aso 1
▁jugée 1
▁attendait 1
erry 1
ml 1
Lire 1
▁perçu 1
internet 1
lib 1
ISATION 1
▁administrateurs 1
/2017 1
▁Berger 1
aou 1
Ajouter 1
▁PAC 1
ennis 1
▁Syndic 1
▁affirment 1
bol 1
▁Sylvie 1
▁Kaz 1
▁idéalement 1
▁intu 1
gences 1
▁dense 1
▁more 1
▁who 1
▁entité 1
▁souffert 1
▁croyances 1
arche 1
eacute 1
rimant 1
▁TRAN 1
▁prouvé 1
bec 1
▁Sor 1
▁Proposition 1
▁destru 1
ouée 1
OLOG 1
échapper 1
▁blocage 1
amuser 1
press 1
servatoire 1
▁Rapporteur 1
vues 1
▁musicales 1
extré 1
▁estimant 1
▁positionnement 1
▁composante 1
▁Pâques 1
▁suivis 1
Alliance 1
▁mariés 1
▁brou 1
▁CONTR 1
▁veste 1
▁dresse 1
IGNE 1
▁aident 1
▁chaudes 1
istage 1
▁Lud 1
▁désaccord 1
▁Vit 1
▁venues 1
▁élégant 1
▁Laurence 1
▁déplore 1
)... 1
▁Commissaire 1
▁existait 1
▁textile 1
aks 1
▁empêché 1
▁cout 1
▁fréquente 1
▁compositions 1
conf 1
▁Archives 1
▁construits 1
rains 1
▁Med 1
▁bav 1
pectre 1
irac 1
▁Cass 1
▁Moins 1
▁Island 1
▁Maxime 1
itoyens 1
▁lus 1
aniste 1
▁philosophe 1
▁filets 1
fini 1
▁inhum 1
▁fumer 1
ags 1
▁clause 1
▁cession 1
▁boisson 1
▁réputé 1
▁quotidiens 1
▁émet 1
otechn 1
▁sombres 1
arlier 1
▁Harper 1
vergne 1
▁entamé 1
▁festivals 1
▁méthodologie 1
▁anec 1
▁isolé 1
▁déroulée 1
▁doubles 1
▁suffi 1
▁Conserv 1
▁zoom 1
▁ouvrant 1
tech 1
effectue 1
▁pesti 1
▁Madagascar 1
ilton 1
▁risquer 1
arisme 1
▁partent 1
▁vigne 1
▁innovation 1
▁restaurer 1
etre 1
▁Chinois 1
▁spirituelle 1
administ 1
GM 1
▁visuelle 1
rogé 1
▁Sus 1
équité 1
▁mécont 1
▁Sarah 1
▁candidatures 1
Article 1
▁Dec 1
yclo 1
▁occupés 1
/01 1
▁ii 1
▁verres 1
▁cannabis 1
▁Laf 1
▁criminalité 1
▁visa 1
▁démographique 1
Me 1
▁finesse 1
▁Out 1
▁répète 1
▁refusent 1
Phili 1
ded 1
▁Orange 1
▁université 1
▁marges 1
▁Johnny 1
▁Ak 1
▁dépendant 1
▁fesses 1
▁Nouvelles 1
▁Vatican 1
▁Fleur 1
▁cum 1
aune 1
▁écrivains 1
▁ouvrier 1
▁tan 1
▁défaites 1
▁VII 1
▁pacte 1
▁mémoires 1
▁sortira 1
empire 1
issé 1
▁préférés 1
53 1
▁engendre 1
clés 1
▁14. 1
érone 1
▁pouce 1
▁disputé 1
alises 1
▁redonner 1
▁chevalier 1
énavant 1
Islam 1
▁grains 1
▁ère 1
▁Té 1
▁radical 1
82 1
▁aériens 1
▁consécutive 1
▁communistes 1
▁Parisien 1
▁Vietnam 1
▁ATT 1
▁Eug 1
▁Légion 1
▁tromper 1
▁massacre 1
▁fabriqués 1
▁galeries 1
▁manifestement 1
▁ralentissement 1
Argentine 1
▁plaire 1
▁entraînements 1
▁Journée 1
▁Remp 1
▁Classi 1
▁Game 1
▁recruter 1
▁divid 1
▁réplique 1
▁’ 1
Apple 1
jean 1
dication 1
▁Jamais 1
▁exacte 1
▁Coun 1
▁métallique 1
▁préserv 1
Er 1
▁traitant 1
▁Ol 1
▁adeptes 1
▁Day 1
▁acous 1
enceinte 1
▁Parfait 1
▁perdus 1
▁Lav 1
▁Cast 1
▁viagra 1
▁pourriez 1
▁attaquer 1
▁Lionel 1
▁mariages 1
nières 1
▁jugés 1
▁brièvement 1
icales 1
▁acheteurs 1
thi 1
▁sécuritaire 1
▁censé 1
▁végétation 1
▁Mgr 1
▁vaccin 1
phine 1
▁entrent 1
▁apais 1
▁aluminium 1
▁gravement 1
aurez 1
exécutif 1
▁smartphones 1
annes 1
arté 1
chis 1
▁occidental 1
▁ethnique 1
▁made 1
zen 1
▁Ross 1
illiers 1
▁découvri 1
▁icônes 1
lui 1
▁Lune 1
▁délit 1
▁Transf 1
estri 1
onçant 1
oxyd 1
▁reten 1
▁dérange 1
lep 1
▁compétents 1
▁avoue 1
▁écarts 1
encadrement 1
▁splendi 1
▁Effec 1
▁mettez 1
▁bail 1
▁calc 1
▁améliore 1
▁saluer 1
ryp 1
▁Cur 1
▁Fid 1
▁Ech 1
▁Loc 1
tueuse 1
wich 1
▁virtuel 1
bons 1
▁contex 1
▁douter 1
▁Garde 1
▁high 1
01 1
▁trouvés 1
cées 1
▁Sask 1
▁provincial 1
éon 1
Antoine 1
▁sublime 1
▁dispute 1
▁dérivés 1
▁Jeunesse 1
ourer 1
▁vastes 1
gez 1
▁minuti 1
▁vén 1
▁PV 1
▁supporte 1
▁circuler 1
▁panoramique 1
▁Disc 1
▁fromages 1
cial 1
▁remplie 1
▁quinqu 1
▁GE 1
ilières 1
▁Hos 1
▁colonie 1
Os 1
▁compétentes 1
▁ressentir 1
▁affirmer 1
▁finissent 1
▁portugais 1
▁inspirée 1
▁Choisissez 1
▁DC 1
▁interprété 1
PM 1
PT 1
clavage 1
▁Cru 1
▁caution 1
▁déroulent 1
oxygène 1
▁danser 1
▁développements 1
ortier 1
▁AFP 1
▁ignore 1
tices 1
▁causer 1
▁big 1
▁Croatie 1
▁roche 1
▁investig 1
▁démissionn 1
▁promotions 1
▁prolongez 1
▁magistrats 1
▁disposez 1
▁cogni 1
▁expressions 1
emporter 1
▁Quar 1
▁envisagé 1
esque 1
sières 1
▁émotion 1
▁intermin 1
enthousias 1
▁insu 1
▁GAR 1
▁incidence 1
ophobie 1
▁profitent 1
Entre 1
Nord 1
cera 1
▁retenus 1
utant 1
▁visiteur 1
▁nommés 1
▁boudd 1
▁naiss 1
▁index 1
▁Nul 1
mens 1
▁convivialité 1
▁vus 1
▁lampe 1
▁fout 1
chettes 1
▁PARTI 1
▁copies 1
▁Chan 1
▁Cup 1
▁Verdun 1
▁propul 1
key 1
▁adopte 1
▁Standard 1
▁toxiques 1
▁penal 1
▁prélèvement 1
▁catastroph 1
▁boules 1
▁préalablement 1
BM 1
▁tang 1
▁agro 1
▁divisé 1
▁comparé 1
▁Noire 1
▁Center 1
tiss 1
▁positives 1
▁entrepreneur 1
▁développent 1
▁transvers 1
BO 1
▁mènent 1
▁suffrages 1
▁sente 1
assassinat 1
▁Chypre 1
▁pots 1
ives 1
▁paye 1
▁parap 1
▁aurons 1
▁NON 1
Égypte 1
▁crê 1
ÉD 1
▁Lap 1
orgue 1
▁présentait 1
)? 1
▁Tes 1
Equipe 1
▁théâtra 1
ambition 1
▁dresser 1
▁cherchant 1
▁you 1
adier 1
▁confiée 1
▁comptables 1
▁employée 1
▁Iss 1
Sud 1
▁Rém 1
▁batteries 1
▁Pav 1
▁devienne 1
▁multiplication 1
▁DIRE 1
▁écla 1
▁suédois 1
avenue 1
▁diable 1
▁exten 1
▁colloque 1
▁lor 1
uleux 1
▁signaux 1
▁appellent 1
▁meub 1
▁finales 1
▁soudain 1
No 1
▁dévoil 1
acée 1
▁salons 1
▁inconnue 1
▁alerte 1
▁Hay 1
▁vanille 1
▁inconvén 1
▁clef 1
tiendra 1
▁rapidité 1
▁sexualité 1
tresse 1
Baptiste 1
pha 1
▁Femme 1
64 1
odge 1
▁textiles 1
▁rivières 1
apprécie 1
oslav 1
exprime 1
▁proposera 1
▁Nintendo 1
ving 1
▁sollicité 1
▁habituel 1
▁progress 1
▁exact 1
▁couvrant 1
vente 1
attache 1
▁suisses 1
▁progresse 1
83 1
▁insi 1
▁repart 1
▁Cri 1
▁reçue 1
▁peser 1
▁domine 1
▁crev 1
ree 1
veilles 1
▁Shi 1
▁herbes 1
▁amélioré 1
▁surprendre 1
Mal 1
▁Bulgarie 1
▁ranger 1
▁sculptures 1
▁erg 1
▁Ho 1
▁préférée 1
vot 1
Rhin 1
▁créatures 1
▁domicilié 1
▁genou 1
▁dixième 1
▁catéch 1
▁tonne 1
▁incontest 1
évêque 1
▁partition 1
▁maritimes 1
Sujet 1
quatre 1
▁manifesté 1
▁Docteur 1
beau 1
▁Langue 1
▁boucher 1
▁fusionn 1
tot 1
▁favorisant 1
èbres 1
lins 1
▁Robin 1
▁boit 1
▁croyez 1
erbro 1
▁visité 1
▁luminosité 1
EX 1
▁Homme 1
▁expliquant 1
▁Regardez 1
▁baignoire 1
▁Organisation 1
▁Serg 1
▁séparé 1
▁Solid 1
▁interpell 1
insule 1
▁Hélène 1
▁REL 1
▁présidé 1
▁regroupement 1
▁illustrations 1
▁soie 1
▁séparément 1
▁protagonistes 1
apit 1
essaie 1
▁Reims 1
mane 1
bellion 1
▁entourée 1
▁inquiétudes 1
lio 1
▁compatibles 1
▁flou 1
senal 1
▁taxi 1
▁cryp 1
accalauré 1
ogram 1
atche 1
▁serré 1
Henri 1
orerie 1
dites 1
▁Jes 1
▁viendront 1
▁parviennent 1
oublier 1
▁César 1
▁1983 1
▁symbol 1
▁greff 1
▁seize 1
▁géants 1
▁lâche 1
▁Floride 1
embar 1
▁perdent 1
quins 1
▁23, 1
▁intérieures 1
▁Fant 1
▁Syste 1
▁distribuer 1
▁construis 1
▁dévoiler 1
Ger 1
▁Claud 1
▁YouTube 1
▁arrivant 1
emm 1
acés 1
▁Rad 1
▁ravit 1
▁Coh 1
▁Reuters 1
▁impliquant 1
▁175 1
▁bactéries 1
▁sonores 1
▁habitude 1
▁tasse 1
▁persécu 1
ergies 1
oma 1
▁critiqué 1
▁médioc 1
▁produites 1
▁coopérative 1
▁which 1
VES 1
▁consécu 1
▁passions 1
▁délim 1
▁Mob 1
odi 1
▁laïcité 1
▁marty 1
ordonnance 1
▁Professeur 1
étendue 1
sia 1
ENTI 1
▁meuble 1
▁redressement 1
▁manœuvre 1
▁sauvé 1
minement 1
▁;- 1
▁plaisirs 1
▁Sylvain 1
Dé 1
▁traitées 1
énager 1
▁pacifique 1
▁repères 1
▁Budget 1
▁Membre 1
▁inoubliable 1
▁préférences 1
▁Chev 1
▁Rav 1
▁regardé 1
▁Chirac 1
▁dictature 1
▁osc 1
▁criminel 1
▁tombent 1
apour 1
▁rétic 1
▁verdict 1
▁prévient 1
▁BBC 1
Oli 1
▁passeport 1
vince 1
rault 1
▁semblerait 1
▁acides 1
▁inverse 1
amé 1
▁Bulle 1
▁Dev 1
▁Nicole 1
▁latitude 1
73 1
▁ABC 1
zon 1
▁créées 1
TTE 1
▁Toy 1
▁patern 1
▁Football 1
alimentaire 1
umée 1
▁fosse 1
▁river 1
▁formuler 1
▁182 1
tifications 1
▁virage 1
▁comédiens 1
▁registres 1
▁Pil 1
▁voisinage 1
▁irréguli 1
oriel 1
ashi 1
▁imprimé 1
▁High 1
▁aménagé 1
▁FORMATION 1
▁Lucas 1
▁grippe 1
▁ampli 1
ongement 1
▁évêque 1
▁Grég 1
▁Directive 1
ularité 1
▁cycliste 1
willer 1
5), 1
▁Guer 1
-01 1
▁bloqué 1
▁Jeff 1
raq 1
▁décideurs 1
▁restreint 1
▁cabine 1
row 1
▁disons 1
▁suspec 1
▁Cd 1
▁Soch 1
lux 1
carb 1
encre 1
inaug 1
urances 1
VM 1
▁illum 1
infection 1
hard 1
etteurs 1
▁ER 1
▁laser 1
zan 1
▁chutes 1
▁Word 1
▁pond 1
▁Rouss 1
ceptions 1
▁durs 1
cuits 1
▁Bonjour 1
▁25, 1
▁témoigner 1
▁Mairie 1
expul 1
dv 1
aton 1
▁Éric 1
▁Schw 1
giques 1
ming 1
▁concentrations 1
▁coller 1
▁madame 1
▁colline 1
▁éclairage 1
▁fréquentation 1
▁échantillon 1
▁achevé 1
▁consultant 1
▁Renaissance 1
▁figurer 1
▁ongles 1
▁campus 1
▁15% 1
UST 1
▁inattend 1
▁parvenu 1
▁dépour 1
▁organe 1
▁averti 1
▁oublie 1
ulter 1
▁pronos 1
tilles 1
▁Arc 1
aborder 1
▁levé 1
▁monstres 1
réhensible 1
▁commenter 1
▁abonnement 1
orieux 1
▁vides 1
implantation 1
▁désirs 1
▁conjointe 1
angile 1
étudiants 1
▁modestes 1
iterie 1
affectation 1
▁Hit 1
▁Rousse 1
▁Alice 1
ambassade 1
oriale 1
enticité 1
accompagn 1
▁chauffe 1
▁diabète 1
ev 1
▁Pla 1
▁concurrent 1
▁procède 1
▁organisent 1
▁balades 1
américaine 1
austérité 1
▁crédible 1
▁sirop 1
OND 1
▁Instagram 1
onal 1
▁Troisième 1
▁audit 1
▁Virginie 1
▁entretiens 1
▁républicains 1
▁enregistrement 1
▁confidentialité 1
pective 1
▁dépendent 1
▁discrétion 1
72 1
▁centimètres 1
amus 1
▁magazines 1
▁ts 1
▁incarne 1
économiques 1
▁XXI 1
▁complètes 1
▁Kie 1
▁Év 1
▁21. 1
▁pédagogie 1
évacuation 1
▁démarre 1
else 1
▁imprim 1
▁GENER 1
▁ancêtres 1
▁varient 1
▁discrète 1
▁aboutir 1
itoba 1
▁réduits 1
▁historiens 1
▁limitation 1
▁valu 1
▁médailles 1
92 1
▁pile 1
adémique 1
▁Proposez 1
anny 1
mbert 1
▁passez 1
enfin 1
incidence 1
▁révélations 1
▁PA 1
▁orale 1
▁resser 1
▁invisible 1
▁indien 1
▁anthrop 1
opage 1
▁volati 1
nac 1
▁saumon 1
▁considérations 1
▁squ 1
▁CER 1
resseur 1
▁!" 1
earch 1
▁piliers 1
▁obligés 1
▁naît 1
imaginer 1
geur 1
oxyde 1
▁mettait 1
▁60% 1
bn 1
▁Ouv 1
gal 1
automobile 1
▁âges 1
▁flanc 1
wis 1
▁souffrances 1
aub 1
▁interroger 1
▁Texas 1
élix 1
viève 1
appé 1
▁multiplier 1
ocoles 1
▁inférieurs 1
▁perles 1
▁contour 1
▁enveloppe 1
▁Nu 1
undi 1
▁fragment 1
▁ferai 1
▁douane 1
▁were 1
accum 1
▁tamp 1
expert 1
▁soutiens 1
▁Préf 1
▁équilibrée 1
▁0,00 1
▁pérennité 1
▁bulletins 1
utile 1
▁décrocher 1
▁entretenir 1
▁Program 1
▁lacunes 1
▁Venezuela 1
▁valide 1
▁PERS 1
Bien 1
▁Live 1
▁prisonnier 1
▁disparaît 1
▁Régime 1
▁diplômes 1
▁marbre 1
▁intercommun 1
▁Posté 1
▁1988, 1
▁Mort 1
Ang 1
▁proie 1
aperç 1
▁coordonner 1
▁bé 1
▁requise 1
▁chargement 1
81 1
ista 1
▁flexibilité 1
▁solitaire 1
guerite 1
ADA 1
▁consultez 1
▁ext 1
▁transporté 1
▁couloir 1
▁gou 1
▁ÉT 1
▁conducteurs 1
EE 1
▁gymnastique 1
▁livret 1
▁marier 1
▁patin 1
▁cost 1
obs 1
▁Parten 1
▁Poly 1
▁pardon 1
▁lig 1
viseur 1
ographies 1
issi 1
▁1.1 1
▁ruines 1
▁Utilisez 1
arie 1
▁Loin 1
▁épaisse 1
▁gir 1
▁cage 1
▁contribuables 1
ingues 1
baye 1
effor 1
▁hésiter 1
▁liaisons 1
▁scep 1
▁géo 1
▁précaution 1
▁genoux 1
▁divine 1
▁Assemblée 1
épuis 1
▁Haw 1
▁croyait 1
HA 1
▁opposés 1
▁rapporter 1
▁transparent 1
▁grammes 1
▁%). 1
5). 1
▁pairs 1
▁OK 1
tises 1
▁diocèse 1
▁fraction 1
Brunswick 1
chaient 1
▁profitez 1
▁records 1
déjeuner 1
▁visuels 1
▁Paiement 1
bio 1
▁mâle 1
▁Vesoul 1
▁musicaux 1
▁remarquables 1
affec 1
env 1
▁soumission 1
▁Lieu 1
▁italiens 1
▁collèges 1
▁palestiniens 1
Orléans 1
▁1986, 1
▁affiches 1
▁Dess 1
▁amendes 1
ams 1
▁Damas 1
▁interdire 1
ihad 1
▁affrontements 1
bu 1
▁cycl 1
▁sénateurs 1
▁prestataire 1
ÉES 1
▁audiovis 1
ius 1
▁2.0 1
▁déposés 1
▁Montant 1
étal 1
▁Créer 1
rales 1
▁douces 1
techn 1
▁conseillère 1
CM 1
▁confère 1
▁Blog 1
▁allés 1
ters 1
Egypte 1
▁pon 1
▁mosquée 1
six 1
▁asiatique 1
▁90% 1
▁urgent 1
▁would 1
▁Plutôt 1
▁criminelle 1
▁transféré 1
éloign 1
orgie 1
▁Bart 1
▁curé 1
▁intégralement 1
▁Hard 1
▁jouait 1
▁?) 1
▁assujet 1
ADN 1
▁compteur 1
cheurs 1
▁immobilière 1
▁obligatoirement 1
▁distributeurs 1
▁génocide 1
▁libérale 1
▁patrimon 1
▁optimiser 1
▁décern 1
▁gérant 1
▁évidente 1
▁fixes 1
apprête 1
urants 1
▁enchères 1
▁convictions 1
▁baptisé 1
87 1
69 1
▁cort 1
▁incul 1
▁cirque 1
▁1500 1
▁craintes 1
▁significatif 1
▁spectre 1
▁fassent 1
▁commissariat 1
otypes 1
oges 1
▁parcelle 1
▁catal 1
▁nécessitent 1
▁accumul 1
▁Marg 1
unier 1
ènera 1
opes 1
TEMENT 1
▁entrevue 1
▁possédant 1
▁(4) 1
▁demandez 1
▁masculine 1
▁exceptionnelles 1
▁Nouvel 1
▁Niveau 1
▁rô 1
▁Bow 1
agez 1
andez 1
outchouc 1
▁prospérité 1
▁Bud 1
▁primi 1
▁25% 1
▁réveil 1
orisés 1
▁Dri 1
entiste 1
▁groupement 1
▁impeccable 1
rande 1
▁SAINT 1
▁Aqu 1
▁Mulhouse 1
anniversaire 1
▁SG 1
aussi 1
▁sobre 1
▁vertes 1
MAR 1
▁FRANCE 1
▁linguistiques 1
▁LED 1
▁bouddh 1
▁Institut 1
organismes 1
▁Na 1
oa 1
▁peintres 1
▁annuelles 1
▁douanes 1
▁fondées 1
nia 1
▁Début 1
relles 1
▁messieurs 1
▁étal 1
▁vendeurs 1
▁Ris 1
cidences 1
▁appuie 1
▁GÉN 1
▁fermement 1
▁inédit 1
visibles 1
étéo 1
ology 1
▁gil 1
▁casting 1
▁survenu 1
gien 1
▁MAIS 1
encourager 1
▁évalué 1
▁dotation 1
▁Science 1
▁haï 1
▁Rwanda 1
apprécier 1
▁»). 1
▁revê 1
▁concrète 1
▁éprouv 1
▁Dig 1
▁recevra 1
▁cauchemar 1
▁plut 1
▁marqués 1
▁ruisse 1
▁Alexis 1
▁pesticides 1
Supp 1
RIP 1
▁récidi 1
▁1997. 1
▁wc 1
▁oxy 1
▁aménagements 1
▁carc 1
KE 1
▁bém 1
allais 1
▁Ba 1
▁rapatri 1
▁contes 1
▁surement 1
▁aisée 1
board 1
mati 1
historique 1
▁Spr 1
▁coll 1
▁récup 1
▁Fland 1
▁rédiger 1
mies 1
Inf 1
inets 1
▁indéni 1
▁vestiges 1
aster 1
▁interdiction 1
▁bagages 1
▁payant 1
▁subtil 1
df 1
▁»), 1
▁IT 1
▁Galax 1
▁gâteaux 1
termination 1
▁gardiens 1
▁som 1
trés 1
Ath 1
oppose 1
▁Boe 1
▁Mire 1
▁indiqués 1
▁prescrit 1
▁transférer 1
atchewan 1
▁Matin 1
▁coeffici 1
organisations 1
▁1960, 1
▁Brest 1
▁lignée 1
▁coré 1
▁jean 1
▁Appartement 1
▁donna 1
▁résidences 1
ilson 1
▁soirs 1
▁grandir 1
▁remises 1
▁sois 1
envol 1
▁métrage 1
▁héritage 1
▁(14 1
▁luttes 1
Philippe 1
▁localités 1
▁Morgan 1
accalauréat 1
▁Juillet 1
▁ethniques 1
▁refroidissement 1
valle 1
alli 1
important 1
▁Gour 1
agression 1
▁saoudite 1
-00 1
▁bib 1
▁1,2 1
▁notice 1
▁Karl 1
évidence 1
ullition 1
▁Rall 1
▁administrateur 1
cker 1
▁parfums 1
▁missiles 1
▁barrières 1
▁thérapeutique 1
▁politiquement 1
▁quotidiennes 1
éronautique 1
▁Pét 1
tint 1
▁trott 1
▁5000 1
▁Ok 1
▁SMS 1
isants 1
▁radicale 1
▁Ile 1
viol 1
▁Mang 1
▁connecté 1
OIT 1
affirmer 1
▁indemnités 1
▁sélec 1
▁quiconque 1
▁Agence 1
▁collaborer 1
▁consistant 1
aix 1
▁Dame 1
▁Santa 1
▁touchées 1
▁appuyé 1
▁différemment 1
▁20. 1
61 1
asso 1
NS 1
▁déroulé 1
▁distribué 1
▁tels 1
▁félicité 1
OMC 1
▁confes 1
▁motivé 1
rinaire 1
▁championne 1
▁environnemental 1
▁Court 1
▁bouff 1
admi 1
▁Ref 1
Emmanuel 1
▁dus 1
▁exceptions 1
activer 1
▁tournois 1
▁christian 1
▁provinciaux 1
▁orb 1
▁expliquent 1
▁imaginé 1
▁obtenues 1
▁Nobel 1
▁lucratif 1
éte 1
encl 1
TIQUES 1
▁Colmar 1
eum 1
agan 1
posi 1
▁robes 1
▁requiert 1
cieusement 1
▁orph 1
▁présidentiel 1
▁achète 1
▁délits 1
▁lie 1
▁éoli 1
Tra 1
Mer 1
▁coûteux 1
▁Flash 1
▁poussent 1
▁CAS 1
▁Pie 1
▁hong 1
▁échoué 1
ariser 1
▁dyn 1
▁River 1
▁sw 1
▁trésors 1
▁méritent 1
▁parach 1
▁dépenser 1
▁probabilité 1
▁baise 1
▁az 1
utable 1
har 1
▁aînés 1
▁contamin 1
épouse 1
▁nerveux 1
redis 1
▁éventuels 1
▁colonisation 1
outant 1
▁accessoire 1
▁Anthony 1
▁habituelle 1
Aub 1
▁Dakar 1
▁transporteur 1
▁1982 1
▁inaccep 1
▁émin 1
▁Résumé 1
héritage 1
chemin 1
▁Had 1
advers 1
▁Xbox 1
▁applique 1
▁AT 1
épanou 1
▁cristal 1
▁prag 1
▁2020 1
▁républicaine 1
▁Pel 1
▁fourchette 1
▁prélèvements 1
sida 1
▁stands 1
▁cérémon 1
▁décalage 1
▁Espace 1
▁Objectifs 1
oies 1
▁compétente 1
▁CRE 1
▁assimil 1
▁ème 1
▁Charlotte 1
▁Viol 1
luent 1
▁CONC 1
attirer 1
▁parité 1
▁compétent 1
▁ISO 1
▁censure 1
atu 1
▁fédérales 1
▁tendresse 1
▁Savoie 1
▁étendu 1
▁amies 1
enthousiasme 1
▁permanents 1
▁Jun 1
inent 1
▁antique 1
▁rébellion 1
▁micros 1
auts 1
▁bouquet 1
▁précautions 1
phonie 1
▁frai 1
originalité 1
ough 1
avancement 1
orption 1
▁TABLE 1
urait 1
alliance 1
▁repasser 1
▁portion 1
alez 1
mif 1
ilisé 1
▁FOR 1
▁tarte 1
lacements 1
▁délivré 1
admis 1
▁Russes 1
entraide 1
▁honnête 1
aps 1
▁préle 1
▁By 1
▁Cécile 1
▁préparés 1
▁HP 1
▁70% 1
▁imaginaire 1
idal 1
chante 1
ese 1
▁récession 1
62 1
yme 1
▁improvis 1
▁50, 1
▁Rib 1
▁collision 1
▁Envoyer 1
ICH 1
▁annulé 1
▁1975 1
▁impressionnante 1
arium 1
▁Bla 1
annoncer 1
▁Représentant 1
▁illégale 1
▁locataire 1
▁factures 1
▁cend 1
ogan 1
▁master 1
▁Kal 1
▁SD 1
▁entrep 1
▁filières 1
Espace 1
▁natation 1
▁sion 1
aigre 1
▁Corps 1
▁Bonn 1
▁accueillera 1
▁cardinal 1
▁députée 1
emballage 1
▁merde 1
apparence 1
▁VER 1
series 1
▁Vale 1
assés 1
▁Shang 1
▁ladite 1
éter 1
immense 1
inspire 1
▁exercé 1
▁mâles 1
▁équilibré 1
▁people 1
roph 1
▁battant 1
mid 1
▁Alli 1
▁généros 1
▁Greg 1
▁clarté 1
▁financièrement 1
neaux 1
écules 1
▁orchestre 1
▁coûté 1
▁pires 1
▁atyp 1
▁vall 1
▁interdits 1
ETTE 1
enregistrer 1
▁Dipl 1
▁céréb 1
▁german 1
▁licenciement 1
▁dog 1
▁silhouette 1
▁nombres 1
▁peloton 1
▁rappellent 1
▁rattraper 1
▁distributeur 1
▁Cis 1
▁Design 1
▁concrets 1
▁aéroports 1
▁frot 1
▁formée 1
tain 1
incertitude 1
▁valoriser 1
rem 1
▁manuels 1
▁métalliques 1
▁terreur 1
▁gymnase 1
awiki 1
ouvert 1
▁failli 1
▁collectionnent 1
▁sélections 1
▁pror 1
▁intégrante 1
▁charmante 1
orange 1
▁chanteurs 1
▁gab 1
▁ouver 1
▁renvoyer 1
TRES 1
▁Anna 1
▁insectes 1
▁24. 1
▁comportent 1
▁bienfaits 1
▁prescriptions 1
Oise 1
▁suspects 1
droit 1
▁Reine 1
▁blanchi 1
▁protégées 1
▁tournent 1
lers 1
▁boulangerie 1
▁humides 1
▁Sochaux 1
▁désignés 1
br 1
▁boî 1
▁glu 1
▁Grec 1
▁oeil 1
84 1
▁Nas 1
▁prie 1
▁noblesse 1
▁turque 1
▁cassation 1
humain 1
▁Us 1
▁végétaux 1
onnaise 1
envisager 1
▁LIV 1
▁Saul 1
▁paraissent 1
▁blonde 1
▁envoyée 1
▁dépistage 1
▁UTC 1
▁Caire 1
▁Bord 1
▁délicatement 1
▁prêté 1
▁Catawiki 1
▁législative 1
▁circonstance 1
▁American 1
▁Jura 1
▁Love 1
▁contrôlée 1
▁devais 1
analyser 1
Administration 1
dad 1
▁Ther 1
▁nettoy 1
ontaine 1
▁demie 1
▁dr 1
lov 1
▁bordure 1
elsea 1
▁praticien 1
PD 1
ouri 1
▁1.3. 1
▁fondu 1
▁générosité 1
▁dérive 1
▁exploitations 1
’« 1
otas 1
▁définitions 1
▁concret 1
▁opté 1
▁radars 1
▁jouera 1
▁fragiles 1
pool 1
▁Flam 1
▁académique 1
▁attest 1
▁Soul 1
▁mercredis 1
▁robots 1
▁cuisiner 1
▁vitamine 1
▁recommandée 1
▁opérateur 1
▁doses 1
▁plug 1
▁neufs 1
▁BMW 1
▁maternelles 1
▁nocturne 1
▁caractérisée 1
▁creus 1
▁vamp 1
▁privilège 1
▁jupe 1
▁Hamas 1
▁attentat 1
tone 1
▁datée 1
▁Squ 1
efforts 1
▁Golfe 1
▁gradu 1
ciplinaire 1
▁1979 1
enter 1
logie 1
▁PROJET 1
onda 1
Etienne 1
▁Mini 1
fli 1
▁chatte 1
▁Sir 1
▁(1, 1
▁intensité 1
▁incompati 1
moiselle 1
▁COU 1
rateurs 1
sir 1
▁ampleur 1
enny 1
▁sociologie 1
▁vitrine 1
ingénieur 1
▁déployer 1
▁convivial 1
radi 1
club 1
▁Gare 1
▁verbe 1
▁annexes 1
▁indépendantes 1
▁terrasses 1
lements 1
▁ouvertement 1
▁excellence 1
loge 1
intrigue 1
JO 1
oust 1
▁politiciens 1
▁nuances 1
▁ô 1
▁1981 1
▁introduction 1
attre 1
trent 1
▁Lind 1
olage 1
▁alternance 1
▁bob 1
inquiétude 1
▁compare 1
till 1
erbrooke 1
▁interprét 1
▁préavis 1
▁dominant 1
accroissement 1
▁reconnaissant 1
▁empi 1
▁ignor 1
▁multiplient 1
▁munitions 1
▁lycées 1
▁cyber 1
▁inventé 1
Éducation 1
▁fres 1
▁réclament 1
▁JOL 1
▁climatisation 1
Amb 1
▁their 1
▁rassure 1
▁reprennent 1
accusation 1
▁astéroï 1
▁multimédia 1
▁indication 1
▁Hors 1
invasion 1
▁baptême 1
admission 1
▁Logement 1
omac 1
empris 1
toire 1
▁stagiaires 1
▁GMT 1
▁remplaçant 1
▁Exemple 1
▁moines 1
▁Burkina 1
▁emporter 1
▁3,5 1
▁contester 1
▁emporté 1
▁entretenu 1
ders 1
▁junior 1
Gu 1
▁Vrai 1
▁sénégal 1
▁Tourisme 1
onale 1
Hy 1
▁projections 1
▁supprimé 1
led 1
▁veuve 1
▁neuve 1
geoise 1
▁idéologique 1
▁Team 1
▁abordé 1
ombrables 1
endance 1
▁copropri 1
enser 1
BN 1
uki 1
▁divertissement 1
▁been 1
▁ID 1
▁Baud 1
▁entraînement 1
érons 1
▁Luis 1
▁nourris 1
TRA 1
▁Rallye 1
▁fonder 1
lès 1
▁HT 1
entends 1
▁Chrome 1
▁mutuel 1
▁Vé 1
aleine 1
▁apportant 1
▁doubler 1
▁220 1
▁versées 1
▁School 1
quons 1
▁observée 1
▁dialogues 1
▁FO 1
/06 1
▁staff 1
▁performant 1
ouk 1
▁malaise 1
▁fonctionnalité 1
andais 1
▁racine 1
▁1978 1
▁antis 1
▁cédé 1
▁crucial 1
▁pans 1
▁drain 1
▁attentif 1
▁convergence 1
▁Basse 1
▁Cris 1
▁freinage 1
parents 1
▁Chemin 1
▁Voyage 1
issantes 1
gui 1
▁semblant 1
équipements 1
▁terrestres 1
▁penalty 1
'). 1
▁22. 1
Afghanistan 1
▁certific 1
▁contrôlé 1
fient 1
ouin 1
▁évoluent 1
▁gouttes 1
▁recouvert 1
mit 1
▁amer 1
▁Baz 1
chy 1
▁citad 1
▁Cadre 1
ierra 1
agran 1
▁prononcée 1
▁Feu 1
▁élémentaires 1
▁litige 1
▁incl 1
ouilles 1
▁congés 1
▁soif 1
▁exigeant 1
▁pères 1
▁synonyme 1
igan 1
▁douzaine 1
instauration 1
▁Tan 1
▁shopping 1
▁capteur 1
▁Valentin 1
’’ 1
▁sûrs 1
▁nuage 1
▁opposant 1
over 1
▁dam 1
▁successivement 1
▁Rhin 1
ANCES 1
incident 1
▁échappé 1
▁raj 1
▁qualifie 1
▁ressemblent 1
▁rentable 1
kers 1
▁sida 1
commerce 1
▁ratio 1
▁avouer 1
▁implication 1
osté 1
êve 1
Duc 1
▁simplifier 1
héroï 1
▁Haïti 1
▁vendue 1
▁péché 1
▁composant 1
▁assistant 1
▁ensembles 1
▁carrières 1
▁faisais 1
▁29, 1
▁contrer 1
▁University 1
▁structur 1
▁Acheter 1
▁découlant 1
ED 1
▁commodités 1
▁respectent 1
▁socle 1
ajus 1
▁Brexit 1
▁dysfonction 1
▁cigarettes 1
▁tendant 1
artic 1
unités 1
▁discuté 1
régation 1
▁subven 1
Roy 1
▁promenades 1
▁contradiction 1
▁bagu 1
▁tristesse 1
▁influences 1
abiliser 1
hen 1
urban 1
▁gasp 1
hafi 1
▁Linux 1
artillerie 1
▁serviettes 1
▁Ferr 1
OW 1
▁panc 1
▁dic 1
▁JU 1
owski 1
inauguration 1
▁calculé 1
ELLE 1
▁Ash 1
▁bêtes 1
▁reviendra 1
▁brève 1
▁major 1
▁chemise 1
▁trésorerie 1
▁177 1
▁memb 1
olène 1
▁posté 1
TEURS 1
▁collines 1
▁judo 1
▁entraînant 1
▁RC 1
▁gigantesque 1
▁low 1
fais 1
pirant 1
athie 1
▁Vert 1
▁convoi 1
▁péninsule 1
▁chargées 1
▁formulées 1
trant 1
issariat 1
▁pleurer 1
oum 1
desc 1
▁merveilles 1
ilatéra 1
gard 1
▁femelle 1
▁mensonge 1
▁assise 1
▁disais 1
▁méditation 1
▁Sum 1
▁Ard 1
▁émergents 1
▁bombes 1
▁toxic 1
▁Singapour 1
▁déblo 1
▁flammes 1
RET 1
actuelle 1
invitation 1
▁Document 1
▁appropriés 1
▁vivons 1
▁installées 1
PH 1
▁pourrons 1
97 1
honor 1
▁revis 1
▁renfer 1
tations 1
▁Va 1
▁environn 1
▁éco 1
▁lame 1
ursus 1
▁chapite 1
td 1
▁cors 1
▁prier 1
▁(12 1
▁manteau 1
grais 1
▁vivait 1
▁homologue 1
▁1985, 1
▁dorénavant 1
Ser 1
▁parcouru 1
▁secrète 1
▁moindres 1
▁diesel 1
▁prédécesseur 1
▁Pape 1
échanger 1
▁Collection 1
vég 1
▁pertinente 1
▁décrite 1
▁trajectoire 1
▁Brian 1
▁Pérou 1
▁abords 1
▁évêques 1
▁Chambres 1
▁hésité 1
▁SERVICES 1
oster 1
ere 1
▁examine 1
berge 1
ÉG 1
envergure 1
▁épices 1
▁sati 1
asters 1
▁bornes 1
▁subord 1
▁Mig 1
ambule 1
▁réunies 1
▁Emploi 1
▁Amis 1
▁Confédération 1
▁sci 1
▁rythmes 1
▁courantes 1
▁menus 1
▁Régis 1
▁recharge 1
▁proportions 1
▁correcte 1
ops 1
▁Mack 1
▁documentaires 1
▁fâ 1
▁1976 1
▁Puisque 1
ÉT 1
▁raisonnement 1
ercedes 1
uxell 1
Prin 1
aman 1
▁Rapha 1
fig 1
▁1996. 1
▁plénière 1
proch 1
▁sl 1
▁Boud 1
▁institutionnels 1
▁diplomatiques 1
▁Eg 1
▁vê 1
▁dotés 1
ueuse 1
▁satisfaits 1
▁levier 1
▁commença 1
TICLE 1
mitt 1
▁axée 1
orting 1
▁Ouver 1
▁créanciers 1
arrêté 1
▁bug 1
▁desquels 1
▁auxili 1
▁basés 1
▁supposer 1
▁parisiens 1
ouler 1
▁formant 1
▁Villa 1
▁masses 1
▁partagés 1
kan 1
▁chasser 1
▁adéquate 1
▁Gon 1
▁Brad 1
▁1995. 1
▁exprimés 1
ello 1
▁pig 1
énique 1
▁stig 1
Quel 1
▁Roman 1
évolu 1
▁demeurer 1
inale 1
▁Supéri 1
▁chaudi 1
▁Meilleur 1
îmes 1
▁Accord 1
▁répondants 1
▁antérieures 1
▁absten 1
▁recouvrement 1
aline 1
▁Activités 1
▁Britanniques 1
Cela 1
▁situer 1
portail 1
enseignant 1
▁devrais 1
/02 1
▁TGV 1
▁récupéré 1
oslavie 1
▁intensi 1
▁bémol 1
Alain 1
▁Ancien 1
▁ENTREPR 1
▁graisse 1
▁Express 1
▁atter 1
▁emblématique 1
annage 1
attle 1
▁GESTION 1
immer 1
▁UTILIS 1
Répondre 1
service 1
▁assiette 1
▁Évaluation 1
▁dépos 1
▁persist 1
▁indiffér 1
▁cess 1
▁développées 1
LC 1
champs 1
ribles 1
▁évitant 1
linge 1
meurs 1
▁Montbéliard 1
▁néf 1
alphab 1
▁motion 1
▁annonçant 1
▁spi 1
▁automobilistes 1
▁renonce 1
adversaire 1
▁enregistrements 1
▁débutant 1
▁prestataires 1
▁inutiles 1
▁publicités 1
▁devriez 1
▁échel 1
▁naviguer 1
obsc 1
▁Recommand 1
▁dimanches 1
▁SH 1
▁contractu 1
▁triomph 1
▁découvrent 1
tifiée 1
▁charger 1
▁incer 1
▁intérim 1
▁inondations 1
▁numér 1
▁vaud 1
tère 1
▁anime 1
▁éventuelles 1
ungle 1
▁améliorée 1
▁Mén 1
▁énormes 1
▁1.1. 1
▁gènes 1
▁opérationnels 1
investissements 1
Alberta 1
appellation 1
▁Annexe 1
▁relay 1
▁wifi 1
▁remontée 1
▁indiquée 1
▁Personnellement 1
▁Pris 1
▁chevel 1
▁BOU 1
▁Vente 1
▁Studio 1
ahn 1
▁indirectement 1
▁Réc 1
éliminer 1
velé 1
andra 1
▁biologie 1
inge 1
▁prostitution 1
LIQUE 1
▁morph 1
▁Manitoba 1
▁Châ 1
▁imagine 1
▁Sais 1
▁plateaux 1
▁subsi 1
▁prévoient 1
▁récurr 1
▁limités 1
▁Travaux 1
▁revêtement 1
▁priver 1
▁précède 1
▁ACC 1
pecteur 1
▁carrefour 1
▁Seb 1
▁décont 1
▁reconstru 1
▁alter 1
▁cafés 1
▁augmentent 1
▁excent 1
▁brute 1
▁caoutchouc 1
▁félicitations 1
▁survivants 1
Li 1
▁Géorgie 1
▁sinistre 1
implication 1
.? 1
▁énoncés 1
Hol 1
▁nôtre 1
▁aire 1
▁Islam 1
▁chinoises 1
▁vaches 1
▁Nigeria 1
tape 1
▁Tit 1
▁Mitter 1
mel 1
▁préd 1
▁intégrées 1
▁fournitures 1
▁Lev 1
▁conteste 1
olaire 1
▁enlevé 1
▁Agric 1
/05 1
▁intéresser 1
▁Domaine 1
▁Réd 1
cidité 1
athèque 1
▁Fox 1
tube 1
▁transc 1
icités 1
actéristiques 1
▁Bomb 1
▁encomb 1
▁versant 1
▁devise 1
▁terminal 1
▁perso 1
▁représentait 1
▁filtres 1
▁câbles 1
▁Porto 1
▁més 1
▁vulnéra 1
UV 1
▁volé 1
▁canons 1
▁Janvier 1
ICEF 1
Jus 1
▁jihad 1
opérations 1
▁mentionnées 1
ergy 1
▁autoc 1
Qui 1
▁désespoir 1
▁prescription 1
▁délicates 1
Epinal 1
avane 1
▁loyers 1
▁40, 1
▁devenues 1
▁BP 1
SM 1
▁Prendre 1
▁bouillon 1
Ile 1
▁Conseils 1
MPL 1
▁reliant 1
ua 1
ocalyp 1
▁Rot 1
▁reconnaissent 1
siez 1
▁négatives 1
▁grise 1
▁Hom 1
tantin 1
▁exposée 1
▁simulation 1
▁apparent 1
▁appliqués 1
Ev 1
▁blind 1
▁Taylor 1
▁foncé 1
▁déclencher 1
accessibilité 1
sal 1
▁DRO 1
▁méchant 1
▁allong 1
91 1
▁LNH 1
▁accordés 1
ajoutent 1
épaule 1
▁formulation 1
▁génère 1
▁stades 1
sud 1
▁fixant 1
▁lol 1
▁poules 1
▁citation 1
▁sophisti 1
bag 1
Azur 1
▁STR 1
alarme 1
▁Répondre 1
▁COR 1
▁fiers 1
▁touchée 1
▁Hass 1
▁Fis 1
▁Série 1
orienter 1
▁3- 1
▁châteaux 1
▁quoique 1
▁verrou 1
▁remor 1
▁exéc 1
UNESCO 1
▁coordonn 1
azine 1
▁Carl 1
▁brillante 1
▁levure 1
▁amitié 1
rageux 1
Ah 1
/09 1
enchaî 1
avancer 1
▁cigarette 1
▁méri 1
▁réglage 1
▁commettre 1
▁London 1
oublie 1
▁allégations 1
▁regroupant 1
▁Fir 1
▁nuire 1
▁démocrates 1
▁lobby 1
▁propreté 1
WA 1
▁CFA 1
▁convertir 1
ousie 1
observer 1
▁posture 1
éralement 1
▁molécules 1
reté 1
extraction 1
▁ramassage 1
émon 1
▁raciale 1
▁Good 1
▁Monique 1
▁attractions 1
pied 1
▁SAL 1
▁Participer 1
dan 1
▁1/ 1
▁prisons 1
Observatoire 1
▁signés 1
▁grimper 1
▁disparus 1
▁précieuse 1
SL 1
▁gau 1
étudiant 1
▁bénéficiant 1
▁ultérieurement 1
cit 1
élargissement 1
▁habitation 1
▁suggéré 1
anca 1
▁reflet 1
▁Chelsea 1
œud 1
dimen 1
▁déplacés 1
direc 1
▁Nick 1
dix 1
▁marquant 1
▁élue 1
▁Joy 1
tête 1
orables 1
▁réalisme 1
▁primordial 1
▁retrouvera 1
arrestation 1
▁croisière 1
guerre 1
▁gardant 1
lain 1
atrie 1
▁parven 1
URES 1
▁Hamon 1
▁achar 1
▁sup 1
▁PM 1
▁Miami 1
▁sélectionneur 1
▁Partager 1
▁Sherbrooke 1
▁douloureux 1
▁accueillent 1
▁interrogations 1
▁comédien 1
▁consolider 1
▁resteront 1
Cor 1
▁TIC 1
▁synchron 1
▁fouilles 1
entraîner 1
▁énum 1
▁adhésion 1
▁syndicale 1
▁interf 1
ual 1
▁salope 1
views 1
Depuis 1
▁flèche 1
▁élégante 1
ked 1
▁2019, 1
appréciation 1
▁23. 1
▁coureur 1
trage 1
audio 1
vistes 1
▁Installation 1
▁Wat 1
▁rus 1
▁Davis 1
▁amical 1
▁OP 1
▁acquisition 1
allo 1
uche 1
espérance 1
utiques 1
inos 1
▁homolog 1
▁subissent 1
▁versée 1
▁complot 1
▁battus 1
▁syndrome 1
▁résiste 1
▁signatures 1
▁Kenya 1
▁courbes 1
▁délivrer 1
▁briser 1
guée 1
▁résolument 1
aluminium 1
▁indépendamment 1
▁élargie 1
Olymp 1
▁Village 1
▁neuvième 1
▁ard 1
diffusion 1
▁Difficile 1
dieux 1
▁Salv 1
▁TOUT 1
▁métab 1
chan 1
▁mutations 1
▁Marion 1
▁Ier 1
▁Chab 1
Mi 1
raisons 1
▁transformations 1
▁dégrad 1
▁psychiatri 1
gents 1
▁ambul 1
▁Kon 1
ossais 1
▁arrêtée 1
gnée 1
/2000 1
croît 1
▁1994. 1
ossier 1
▁aus 1
▁prô 1
adapte 1
▁lenti 1
▁estimation 1
▁envoi 1
▁Éditions 1
▁remboursements 1
▁quotas 1
▁arômes 1
▁sacrée 1
▁mentionner 1
Germain 1
▁rédacteur 1
▁attentivement 1
▁syndicales 1
▁esclaves 1
▁morales 1
63 1
▁pêches 1
▁Frères 1
▁sache 1
5.000 1
▁Japonais 1
▁Mira 1
▁paill 1
▁Sn 1
avérer 1
ANTE 1
▁dynas 1
Neuve 1
▁Etienne 1
alley 1
▁poire 1
▁diap 1
05 1
▁décorer 1
▁Promotion 1
Invité 1
▁jolis 1
▁hauteurs 1
▁RDC 1
▁perce 1
▁postale 1
▁CDI 1
interpr 1
▁consulté 1
▁vinaigre 1
▁indicateur 1
▁CB 1
▁copain 1
▁angles 1
▁réparties 1
▁Puy 1
onaise 1
ropole 1
réf 1
▁aveugle 1
▁spécificités 1
▁Saskatchewan 1
arbitrage 1
▁bottes 1
mez 1
▁assume 1
▁exh 1
▁salariale 1
▁france 1
▁IM 1
▁Alexander 1
▁surcroît 1
▁organiques 1
▁COP 1
▁Psy 1
▁croiser 1
▁réduisant 1
Non 1
boy 1
▁Améli 1
▁inscrites 1
▁DOSSI 1
▁conquérir 1
▁concer 1
eul 1
▁percevoir 1
pal 1
▁expressément 1
▁référencement 1
évo 1
▁institutionnel 1
▁Gib 1
▁prolongement 1
impôts 1
eri 1
▁mangé 1
▁indésirables 1
▁black 1
▁énig 1
▁Temple 1
ISES 1
Rouge 1
inité 1
▁ours 1
▁Numéro 1
▁oignons 1
▁observation 1
▁Lic 1
▁remplit 1
▁voeux 1
▁Diam 1
▁Vingt 1
▁Méth 1
▁exon 1
▁suspendre 1
thèse 1
▁bassins 1
urations 1
ERG 1
▁réglé 1
▁Fête 1
▁opérationnelles 1
▁iranien 1
▁adverse 1
▁1: 1
▁SOC 1
encore 1
▁Valence 1
esclavage 1
ident 1
rines 1
▁cousin 1
▁notable 1
▁djihadistes 1
▁agriculture 1
▁pirates 1
groupe 1
ellé 1
omie 1
▁implic 1
emprisonnement 1
Provence 1
▁critiquer 1
lacer 1
▁piles 1
▁exécuter 1
▁Ségolène 1
▁Juppé 1
▁Brigitte 1
▁confondu 1
acquitter 1
anni 1
iait 1
section 1
ifier 1
▁succède 1
étang 1
▁bruits 1
▁théoriques 1
▁Water 1
▁bombarde 1
▁valent 1
mic 1
illusion 1
▁ASSUR 1
▁Sex 1
▁Avril 1
▁jouir 1
jugés 1
gués 1
ONN 1
▁innovantes 1
▁entreprendre 1
▁habitat 1
viendra 1
rones 1
▁éloigné 1
▁massivement 1
▁GRAN 1
▁Sain 1
▁porn 1
AZ 1
▁ratification 1
▁fièvre 1
mina 1
▁LOG 1
anthrop 1
Supprimer 1
uyez 1
▁quinquenn 1
▁tournées 1
▁commissaires 1
hém 1
▁Will 1
▁justesse 1
rest 1
▁adoptés 1
▁retards 1
▁phares 1
▁dessine 1
▁16. 1
▁pix 1
▁Zone 1
▁équipées 1
▁tarder 1
▁chuté 1
▁financés 1
▁cassé 1
ardie 1
▁pilier 1
▁cohérent 1
▁Syndicat 1
▁sécheresse 1
▁fluctu 1
▁surplus 1
▁détresse 1
▁consacrées 1
6). 1
6), 1
▁enthousiasme 1
▁Roth 1
fiance 1
▁ambigu 1
▁surnom 1
▁Philippines 1
intéress 1
▁agrandir 1
▁culpabilité 1
▁pratiqué 1
▁Aubry 1
▁Lucien 1
explication 1
▁Wars 1
▁conformer 1
renez 1
▁délibéré 1
▁décline 1
▁redoutable 1
▁Sap 1
▁dise 1
▁CHAP 1
▁météorologiques 1
fam 1
▁tatou 1
▁sacrifice 1
400 1
▁hameau 1
▁natale 1
▁indemnité 1
▁temporaires 1
▁intégral 1
▁justifié 1
▁délibération 1
agh 1
▁conduites 1
▁légendaire 1
▁PP 1
▁Esc 1
▁pharmaci 1
▁2- 1
▁1987, 1
▁traitée 1
▁déterminés 1
oureusement 1
bat 1
ternel 1
▁stupéfiants 1
esthé 1
tendez 1
apacité 1
ights 1
▁chauds 1
▁vétérinaire 1
▁break 1
aristes 1
▁Vel 1
assembl 1
▁Excell 1
▁impressions 1
▁Véronique 1
▁descendants 1
isent 1
artif 1
ommande 1
▁rumeur 1
▁exigence 1
▁dec 1
inon 1
▁cursus 1
▁pensant 1
▁endé 1
ENTRE 1
▁State 1
▁orchest 1
▁signifier 1
▁maximal 1
▁Vallée 1
Agriculture 1
▁Matt 1
ACT 1
▁échang 1
▁économistes 1
▁promoteur 1
▁conduisent 1
▁soumet 1
▁vaincre 1
▁Geneviève 1
▁supermarché 1
Co 1
èdes 1
▁doter 1
▁marie 1
êché 1
▁constituant 1
▁promu 1
▁Sig 1
fiction 1
▁brésilien 1
▁oppose 1
gnès 1
otti 1
▁cortège 1
▁inconnus 1
▁millénaire 1
loc 1
▁Wilson 1
iciel 1
▁soeurs 1
▁raisonnables 1
espèces 1
▁crèches 1
▁courageux 1
▁Raj 1
▁Colu 1
▁tribu 1
▁DOC 1
▁bénéfique 1
▁%), 1
▁Lettre 1
list 1
▁nuls 1
associer 1
▁ticket 1
UTION 1
inventaire 1
embauche 1
Très 1
▁mignon 1
▁arrangements 1
▁conversations 1
ssis 1
▁excessive 1
▁agi 1
▁débattre 1
UEL 1
▁Question 1
EM 1
▁consist 1
▁vienne 1
▁nid 1
▁dépassent 1
▁Sang 1
endettement 1
▁31. 1
▁Chauff 1
▁synthétique 1
7). 1
enstein 1
▁Définition 1
ados 1
jusqu 1
▁diplômé 1
▁vital 1
audissements 1
▁Pent 1
onymat 1
▁hébergements 1
▁explosion 1
▁raccord 1
▁réité 1
▁régulières 1
▁causés 1
▁27, 1
▁Company 1
▁freins 1
▁Colin 1
▁Thib 1
▁Mohammed 1
▁islamiste 1
▁migrations 1
▁habitués 1
▁connaissais 1
▁classées 1
abo 1
▁denrées 1
▁dauph 1
▁Louv 1
▁Qualité 1
▁citoyenne 1
▁reconnues 1
▁broder 1
▁renfort 1
ASSE 1
▁activer 1
eaux 1
allah 1
▁montres 1
optique 1
nelles 1
▁Chau 1
▁Life 1
▁fui 1
▁établissant 1
▁TP 1
emporte 1
▁trouveront 1
IDE 1
▁fréquences 1
▁infrastructure 1
▁BO 1
▁demandons 1
▁sir 1
94 1
▁SOU 1
▁Fel 1
▁improb 1
▁Chantal 1
uto 1
▁REP 1
▁PROP 1
▁sympathiques 1
▁allure 1
▁escomp 1
AMB 1
▁sid 1
amorph 1
▁abattu 1
aba 1
Opéra 1
▁fondations 1
enheim 1
▁connectés 1
▁abri 1
▁déménagement 1
▁range 1
▁Smart 1
▁solliciter 1
oeuf 1
▁amples 1
▁vignoble 1
71 1
pente 1
▁hébergement 1
▁1950 1
▁respectives 1
▁modération 1
▁Lake 1
▁oncle 1
pier 1
▁déclarée 1
Fer 1
vér 1
▁protocoles 1
▁fas 1
▁team 1
▁clefs 1
▁Améric 1
▁solenn 1
▁Kadhafi 1
▁Hun 1
▁clairs 1
▁Act 1
▁COMMENTAIRE 1
Cons 1
minés 1
areils 1
▁ICI 1
▁survenue 1
▁impératif 1
▁Appr 1
▁corromp 1
93 1
7), 1
itables 1
▁gastronomie 1
▁excuses 1
▁encourageant 1
▁déposées 1
mos 1
▁périphériques 1
▁acquit 1
allocation 1
▁indienne 1
▁allocations 1
▁dort 1
imposent 1
▁Marguerite 1
▁localement 1
▁flamme 1
▁1973 1
▁Perm 1
▁trame 1
▁coulisses 1
▁réveiller 1
opro 1
▁palestinienne 1
▁Pontarlier 1
tente 1
ITÉS 1
raser 1
▁permettons 1
▁gym 1
▁contenues 1
awa 1
▁directes 1
▁Moy 1
▁brus 1
oiseau 1
▁chaine 1
élien 1
infanterie 1
▁PROFESSION 1
▁chocs 1
▁revêt 1
▁filiales 1
▁gants 1
▁réjouit 1
▁Taux 1
▁présentations 1
▁généraliste 1
▁Bun 1
arbres 1
wald 1
DER 1
▁bâton 1
Arm 1
▁info 1
iPhone 1
▁travaillait 1
▁saute 1
▁Ras 1
▁blues 1
rites 1
▁océans 1
▁relevés 1
▁Finance 1
▁photographes 1
▁broch 1
▁forestière 1
▁durablement 1
AK 1
▁stabilisation 1
infir 1
▁célébrée 1
▁Tré 1
ultés 1
▁ther 1
BL 1
▁routine 1
▁Auteur 1
employé 1
▁découle 1
▁globe 1
▁Lie 1
▁logiquement 1
▁laissait 1
▁DOM 1
▁Industri 1
crivez 1
appartenance 1
▁christianisme 1
▁Vern 1
événements 1
▁couler 1
▁linéaire 1
▁goth 1
▁croyance 1
▁intégrant 1
▁exploser 1
▁cuisin 1
rik 1
fox 1
étan 1
▁CNRS 1
▁Indiens 1
elson 1
ikh 1
▁tendu 1
▁chol 1
ignait 1
▁Brand 1
▁déra 1
▁Cla 1
▁WW 1
▁Hauts 1
▁Kam 1
Cet 1
▁tis 1
▁relier 1
harmonisation 1
velines 1
▁Research 1
▁conscients 1
▁Fa 1
▁Corporation 1
ako 1
▁3% 1
rock 1
▁Championnats 1
▁Francfort 1
▁crâne 1
▁rituel 1
▁entrant 1
▁séparée 1
▁confirmés 1
▁asiatiques 1
▁Mitterrand 1
▁allusion 1
▁doré 1
▁Maréchal 1
▁exiger 1
▁spatial 1
ciel 1
hel 1
impulsion 1
▁sien 1
▁prenantes 1
▁triomphe 1
▁intégrale 1
▁prolongée 1
sile 1
▁Slovaquie 1
▁reconstruire 1
abl 1
▁Spi 1
effets 1
▁coûter 1
▁revivre 1
▁Div 1
▁cacao 1
▁nœud 1
▁aimait 1
▁dépose 1
▁casier 1
▁aménagement 1
prop 1
▁Wol 1
▁cyclistes 1
▁data 1
DITIONS 1
▁parallèlement 1
▁orienté 1
▁défici 1
▁Eb 1
▁?" 1
académie 1
▁revu 1
▁agissant 1
Bar 1
▁Béné 1
▁Inté 1
▁repren 1
▁Jéré 1
-30 1
▁certificats 1
▁SN 1
Open 1
ocratie 1
▁ballons 1
▁Réponse 1
▁fusil 1
300 1
▁consignes 1
▁Siège 1
réez 1
ardez 1
▁inval 1
ilo 1
▁occupants 1
▁transparente 1
vus 1
▁stables 1
▁240 1
▁Angela 1
▁retient 1
▁ut 1
▁surpl 1
▁exigent 1
▁attachés 1
▁colorant 1
▁restriction 1
▁Dion 1
▁Résistance 1
▁Cord 1
▁collier 1
▁Madeleine 1
▁désirent 1
▁algorith 1
dote 1
erve 1
▁baby 1
▁actives 1
▁Analyse 1
indemnisation 1
officier 1
Jeux 1
▁capteurs 1
▁commençant 1
▁automatiques 1
ulées 1
▁gagnants 1
▁successives 1
▁piég 1
▁Suis 1
▁anom 1
▁Argentine 1
▁IX 1
ersey 1
▁sn 1
cale 1
▁TRAVA 1
offensive 1
▁algérien 1
▁parvenus 1
tiné 1
▁Client 1
Hz 1
elez 1
poud 1
▁Mercedes 1
▁commises 1
▁pyra 1
▁Faso 1
▁gêne 1
▁Boris 1
▁remplacée 1
▁revendique 1
Go 1
▁goutte 1
/07 1
ij 1
▁Yah 1
cass 1
chal 1
▁moules 1
▁poing 1
émen 1
rera 1
▁lavage 1
▁adjointe 1
▁sectori 1
▁décré 1
▁tombés 1
éricourt 1
▁bénévole 1
imaginaire 1
▁diale 1
engagent 1
erai 1
▁Lyn 1
▁réputée 1
▁omb 1
▁Turb 1
▁anges 1
▁ressembler 1
ENTE 1
▁fondements 1
resseurs 1
chevêque 1
▁pénitenti 1
erbaïd 1
▁gol 1
▁Compé 1
▁philosophique 1
geon 1
▁expansion 1
Pre 1
▁Lef 1
agira 1
▁pès 1
▁élan 1
▁visualiser 1
▁parution 1
▁respirer 1
▁compas 1
agné 1
▁Light 1
▁passager 1
▁prestige 1
▁abandonnée 1
▁impôt 1
▁fracture 1
▁impatience 1
expulsion 1
▁coupables 1
▁cancers 1
▁interpellé 1
▁modifie 1
▁mette 1
Don 1
▁réparations 1
▁twe 1
▁–, 1
▁boyc 1
▁élargir 1
▁aléatoire 1
▁baies 1
ogie 1
▁pénurie 1
▁égyptien 1
▁élig 1
enberg 1
▁comparables 1
Sal 1
▁fécond 1
▁norvég 1
▁fossiles 1
▁29. 1
▁connaissons 1
▁correctionnel 1
▁exceptionnels 1
fan 1
▁Laus 1
▁irréproch 1
▁dernièrement 1
▁Asse 1
▁British 1
▁viandes 1
▁BNP 1
▁distinctes 1
▁profitant 1
▁concrétiser 1
OCI 1
..." 1
▁Civ 1
▁rude 1
euts 1
erbaïdjan 1
74 1
▁Liver 1
▁isolés 1
▁satisfaisant 1
▁répertori 1
▁mobilisés 1
▁baccalauréat 1
ongo 1
▁copine 1
▁polluants 1
▁AF 1
▁1% 1
angoisse 1
▁confrères 1
▁imprimés 1
▁admissibles 1
▁exhaustive 1
alia 1
amuse 1
oiseaux 1
▁colomb 1
▁récon 1
▁mortes 1
▁aîné 1
▁!). 1
11. 1
Mos 1
▁promoteurs 1
▁Dall 1
▁appréciée 1
▁1- 1
▁livrés 1
▁étouff 1
▁communiqués 1
▁élites 1
▁CAC 1
▁pôles 1
ctor 1
mblay 1
▁1.000 1
cus 1
oro 1
▁taches 1
▁chouette 1
▁TPS 1
▁biographie 1
▁Sujets 1
▁illicite 1
interaction 1
▁chêne 1
▁cali 1
jord 1
▁ACP 1
▁tabou 1
▁Ler 1
▁toiles 1
ardes 1
▁Bio 1
resses 1
orieuse 1
▁essaye 1
▁nullement 1
cies 1
▁compliquée 1
▁cessent 1
▁répété 1
▁résidentiel 1
▁SON 1
▁guérison 1
parc 1
▁Gray 1
dié 1
-14 1
▁Social 1
▁convaincus 1
ultime 1
▁illégal 1
▁estivale 1
▁collabore 1
▁Fall 1
atteinte 1
argument 1
▁Chré 1
▁visait 1
▁cocktail 1
▁brise 1
▁attribuée 1
▁Louvre 1
▁vierge 1
▁téléphoniques 1
▁seigne 1
▁Sid 1
▁architecte 1
▁PNUD 1
▁same 1
▁repousser 1
▁longueurs 1
▁acquises 1
NT 1
ilia 1
meur 1
▁acadé 1
▁litre 1
▁XI 1
sson 1
▁Yam 1
▁Barth 1
▁manuscrit 1
▁écosystèmes 1
▁(25 1
▁Souv 1
▁Trudeau 1
retour 1
sants 1
▁somp 1
▁télévisée 1
▁Book 1
▁bordel 1
▁forter 1
▁préparatoire 1
ORS 1
▁retenues 1
▁introduire 1
cement 1
▁concessions 1
vénie 1
▁coiffure 1
▁reprenant 1
▁Référence 1
oici 1
▁BB 1
ONE 1
▁magnétique 1
zég 1
▁cérémonies 1
▁Jouer 1
▁nécessitant 1
anter 1
▁envisagée 1
▁chasseur 1
attan 1
▁apprenti 1
▁temporairement 1
dine 1
▁slogan 1
▁Zoo 1
itablement 1
▁appelant 1
▁vengeance 1
▁Cameron 1
▁agrément 1
ouveaux 1
▁lancés 1
▁guitariste 1
▁redist 1
▁champagne 1
production 1
▁fréquents 1
▁manga 1
▁Malte 1
▁signataires 1
▁ouvrent 1
▁they 1
stanbul 1
tinction 1
▁Auto 1
▁couver 1
▁toiture 1
▁prévoyant 1
▁éping 1
▁supervision 1
▁abordés 1
▁(13 1
▁ébullition 1
▁nostalgie 1
▁nue 1
▁déclenché 1
▁mélanc 1
▁vendues 1
ppes 1
▁barres 1
▁rondes 1
▁provoquant 1
▁Autom 1
▁festivités 1
▁féminines 1
Eur 1
uries 1
▁échecs 1
oratoire 1
intéressent 1
02 1
▁ferons 1
▁boxe 1
▁laissera 1
▁placard 1
clé 1
acieux 1
▁fonte 1
▁joyeux 1
yclopé 1
oulette 1
▁Topr 1
▁explicitement 1
▁cohérente 1
▁montréal 1
▁Tah 1
affronter 1
▁Lau 1
▁correspondants 1
▁Coord 1
▁interpréter 1
Py 1
▁aires 1
rections 1
▁vs 1
orteurs 1
▁Toprural 1
▁vulg 1
expiration 1
▁Clo 1
entieux 1
▁Aix 1
€. 1
▁Film 1
▁esthé 1
▁spécificité 1
attén 1
▁saints 1
▁motivations 1
Away 1
▁patrie 1
▁pote 1
onnières 1
essais 1
▁Nett 1
▁dédiés 1
▁inviter 1
▁appréciable 1
▁végétale 1
▁renouveau 1
▁Alger 1
▁Ku 1
▁Ciel 1
▁incapables 1
▁exécuté 1
▁jadis 1
▁généreuse 1
xions 1
▁dépassant 1
▁ah 1
▁Hubert 1
▁last 1
▁xén 1
dlr 1
IQUES 1
▁Fai 1
index 1
▁décap 1
▁boue 1
verses 1
uffisance 1
▁réfection 1
▁grotte 1
▁achevée 1
▁Septembre 1
zégovine 1
▁cellulaire 1
▁XVIe 1
▁désirez 1
▁renouvelable 1
▁marti 1
▁préjugés 1
▁incidences 1
trices 1
▁pétanque 1
effondrement 1
▁emball 1
▁prudent 1
▁amusant 1
▁ouvrière 1
infos 1
▁tirent 1
▁persuadé 1
lire 1
▁Havre 1
▁monopole 1
▁Jeune 1
▁mélang 1
▁remplacés 1
▁échéance 1
▁inj 1
▁anorm 1
▁vaccination 1
Nic 1
▁maintes 1
▁1.2. 1
▁Wallonie 1
ambassadeur 1
dical 1
pan 1
UNICEF 1
▁symph 1
▁explicite 1
▁prières 1
illers 1
▁cuit 1
▁versés 1
▁Républicains 1
▁recueillies 1
sax 1
ordinaires 1
EZ 1
cast 1
▁Marti 1
▁monop 1
▁basées 1
▁résidu 1
drey 1
▁offrira 1
▁situent 1
programme 1
▁mystérieuse 1
▁contamination 1
▁Kra 1
affection 1
▁boss 1
rence 1
▁work 1
▁PUBLIC 1
▁Obtenez 1
▁routiers 1
▁Notamment 1
utique 1
▁Réservez 1
▁liquides 1
▁rater 1
▁footballeur 1
valence 1
▁immigrés 1
▁épousé 1
▁supers 1
▁reviendrons 1
▁promener 1
▁emplacements 1
▁Salles 1
Américain 1
▁17. 1
▁pluvi 1
▁légèreté 1
uite 1
▁suivies 1
▁chaussure 1
var 1
▁Well 1
▁Belge 1
▁ham 1
▁récolter 1
▁devenait 1
oignez 1
▁flic 1
▁Impossible 1
▁rallye 1
ït 1
elage 1
▁communique 1
▁calmer 1
kins 1
▁Femmes 1
▁réclamé 1
▁suivez 1
▁XIII 1
▁retombées 1
ipp 1
grade 1
▁légis 1
▁HomeAway 1
▁VR 1
▁Professionn 1
▁décisive 1
▁rénové 1
▁entraine 1
▁essu 1
▁patronale 1
▁vaccins 1
OF 1
▁1981, 1
▁erron 1
▁éme 1
▁confirment 1
érapeute 1
FAQ 1
▁soulève 1
▁alimenter 1
inspi 1
▁26, 1
▁bit 1
▁Stéphanie 1
▁régie 1
Hexagone 1
insécurité 1
▁séminaires 1
▁Vand 1
▁Citro 1
riculation 1
▁transmises 1
▁ANNE 1
▁imposant 1
▁cultiver 1
▁desquelles 1
▁habitent 1
▁distincts 1
tinéraires 1
▁facettes 1
endez 1
▁2020. 1
▁conservés 1
▁transformée 1
mping 1
▁fournissant 1
▁légendes 1
▁Pit 1
▁compact 1
▁invol 1
▁Figure 1
▁Ltd 1
URSS 1
▁familiaux 1
▁inégal 1
▁territorial 1
▁interdis 1
ouard 1
▁ivoi 1
Charles 1
▁Contrôle 1
▁silencieux 1
▁habitations 1
antenne 1
▁Marque 1
▁sommaire 1
▁intenses 1
▁regretter 1
▁vestiaires 1
▁urgences 1
actique 1
guay 1
▁reculé 1
▁végétales 1
▁90, 1
▁1984, 1
▁déplor 1
▁israéliens 1
9,00 1
▁MAT 1
GAN 1
▁Galaxy 1
▁Réserve 1
enaires 1
▁Accomp 1
▁féliciter 1
▁Corin 1
▁descriptif 1
▁coopératives 1
▁défunt 1
▁Enc 1
▁devises 1
▁intéressée 1
▁reflè 1
antine 1
▁Anim 1
icatif 1
bin 1
royable 1
▁plaidé 1
▁croître 1
▁taire 1
▁biscuits 1
▁Micro 1
▁2% 1
▁comique 1
▁Base 1
▁mettons 1
▁manipuler 1
▁Econom 1
▁Ferrari 1
andonnée 1
▁bougies 1
▁habitué 1
▁Distance 1
▁imagination 1
Beau 1
▁travaillons 1
▁réveille 1
▁pochette 1
▁casino 1
▁Det 1
▁dédic 1
▁analog 1
▁POS 1
▁cyn 1
rantes 1
▁Marco 1
▁tamb 1
▁robuste 1
▁précédant 1
▁élémentaire 1
attendais 1
immy 1
▁muni 1
-02 1
▁hém 1
▁affection 1
▁apportera 1
▁concrètement 1
▁apports 1
▁posés 1
loo 1
▁supervis 1
▁NATION 1
▁DOSSIER 1
▁Christi 1
dités 1
ensives 1
▁invitée 1
▁soulignent 1
▁rafraîch 1
ondon 1
zabeth 1
▁Tarif 1
Arts 1
▁notation 1
sage 1
issants 1
▁Rivière 1
hyper 1
▁Walter 1
▁compl 1
▁redémar 1
▁Show 1
▁portera 1
▁BI 1
▁Jacquel 1
▁prenons 1
▁coutume 1
▁Administration 1
rication 1
▁contribuable 1
▁décidée 1
▁éliminé 1
▁revenue 1
escalade 1
▁soja 1
mag 1
▁ciment 1
▁1.2 1
▁scrup 1
▁1982, 1
inerie 1
▁céramique 1
▁stér 1
ASE 1
▁106 1
▁Inscriptions 1
▁IND 1
▁carottes 1
orateur 1
lion 1
KO 1
▁1977 1
▁Brit 1
▁femelles 1
▁sédi 1
▁Meuse 1
▁étroit 1
▁pénible 1
▁Hollywood 1
cam 1
▁rigoureux 1
▁Ami 1
▁fondant 1
▁Bak 1
▁conquis 1
▁matérielle 1
▁croisé 1
▁transmise 1
▁démonstrations 1
▁inch 1
▁regretté 1
▁électrom 1
▁splendide 1
LÉ 1
édents 1
intervenir 1
▁construites 1
▁fiss 1
onnait 1
télé 1
▁inférieures 1
▁Pad 1
▁Rencontre 1
▁Lambert 1
▁balay 1
▁scénariste 1
▁1992. 1
▁cœurs 1
▁Constantin 1
ignez 1
▁Kiev 1
Herzégovine 1
▁voyageur 1
▁panorama 1
▁attribuer 1
osses 1
▁Cloud 1
AMP 1
▁législations 1
8). 1
▁bamb 1
▁Beach 1
ochtone 1
▁marée 1
▁normales 1
▁adju 1
▁lisant 1
▁lub 1
▁dun 1
▁serbe 1
▁phosph 1
▁millier 1
▁Utilisation 1
▁tronc 1
▁Gouver 1
▁inhabitu 1
▁préparent 1
dissement 1
▁attitudes 1
-03 1
allez 1
▁pourvu 1
▁complice 1
▁incluent 1
▁récompenses 1
eron 1
pération 1
oon 1
zheim 1
▁Météo 1
▁Sierra 1
▁faiblesses 1
▁encouragé 1
▁animateur 1
▁galax 1
▁tienne 1
▁recouvre 1
ordement 1
▁raid 1
▁draps 1
▁(11 1
▁28, 1
▁INTR 1
▁rhum 1
▁sachez 1
▁Mlle 1
▁possé 1
ingénierie 1
▁dissolution 1
omen 1
▁sure 1
▁respectueux 1
Rivières 1
▁accueillante 1
▁danseurs 1
oen 1
▁NBA 1
▁Ibra 1
▁Station 1
▁diffusées 1
phal 1
▁anecdo 1
amba 1
▁autorisées 1
▁Boeing 1
ENTATION 1
▁Continuer 1
▁Diego 1
▁renouvelé 1
▁CI 1
▁ramené 1
▁rejeter 1
▁civilisations 1
▁1980. 1
▁Rud 1
ee 1
▁salue 1
ssé 1
▁acide 1
▁formelle 1
▁pénalité 1
oeuvres 1
▁orbite 1
▁plongé 1
▁Pire 1
▁Sû 1
▁infections 1
▁28. 1
oches 1
▁émanant 1
▁Slovénie 1
ïd 1
▁sti 1
▁insuffisant 1
ben 1
▁acceptée 1
atisée 1
héran 1
acon 1
▁domiciliée 1
/2016 1
▁conviviale 1
▁PROGR 1
▁insou 1
▁vid 1
▁porno 1
▁effond 1
▁flexible 1
ido 1
▁RTL 1
▁mentions 1
ortez 1
enseign 1
▁provinciale 1
vable 1
▁gagnent 1
▁Lausanne 1
▁home 1
▁escalier 1
▁brûler 1
▁sienne 1
envelopp 1
▁diges 1
historien 1
▁successifs 1
▁ventilation 1
ART 1
▁Sie 1
▁FM 1
▁séisme 1
estimation 1
▁suffisantes 1
▁MATI 1
AGNE 1
▁alphab 1
▁Située 1
▁Kan 1
▁prévoyait 1
▁découvrirez 1
escalier 1
▁marathon 1
invention 1
[...]
